{"\"": 0, "\"A": 1, "\"And": 2, "\"As": 3, "\"He": 4, "\"I": 5, "\"If": 6, "\"It": 7, "\"It's": 8, "\"My": 9, "\"The": 10, "\"There": 11, "\"This": 12, "\"We": 13, "\"When": 14, "\"You": 15, "%": 16, "&": 17, "'": 18, "'I": 19, "'The": 20, "'re": 21, "'s": 22, "'t": 23, "(": 24, "()": 25, "(A": 26, "(AP": 27, "(AP)": 28, "(and": 29, "(which": 30, ")": 31, ",": 32, "-": 33, "--": 34, "-time": 35, "-to": 36, "-to-": 37, "-year": 38, ".": 39, ".m": 40, ".m.": 41, "/": 42, "0": 43, "00": 44, "000": 45, "1": 46, "1,": 47, "1,000": 48, "10": 49, "10,": 50, "100": 51, "11": 52, "12": 53, "12,": 54, "120": 55, "13": 56, "14": 57, "14,": 58, "14th.": 59, "15": 60, "15,": 61, "16": 62, "17": 63, "17,": 64, "17.": 65, "18": 66, "19": 67, "19,": 68, "19.": 69, "199": 70, "1995": 71, "19th": 72, "1st": 73, "1st.": 74, "2": 75, "2,": 76, "2-": 77, "2-0": 78, "2-1": 79, "20": 80, "20,": 81, "200": 82, "2008": 83, "2009": 84, "201": 85, "2010": 86, "2012": 87, "2014": 88, "2014,": 89, "2014.": 90, "2016": 91, "2017": 92, "2018": 93, "2018,": 94, "2019": 95, "2019,": 96, "2019.": 97, "202": 98, "2020": 99, "2020,": 100, "2021": 101, "2021,": 102, "2021.": 103, "2022": 104, "2022,": 105, "2022.": 106, "2023": 107, "2023,": 108, "2023.": 109, "2024": 110, "2024,": 111, "2024.": 112, "2025": 113, "2025.": 114, "21": 115, "21,": 116, "22": 117, "22,": 118, "23": 119, "24": 120, "24,": 121, "25": 122, "25,": 123, "25th.": 124, "26": 125, "26,": 126, "26-year": 127, "26-year-": 128, "26-year-old": 129, "26.": 130, "27": 131, "27,": 132, "28": 133, "28,": 134, "28th": 135, "29": 136, "29,": 137, "2nd": 138, "3": 139, "3,": 140, "3,000": 141, "3-": 142, "3-0": 143, "30": 144, "30,": 145, "300": 146, "31": 147, "33": 148, "35": 149, "37": 150, "3r": 151, "3rd": 152, "4": 153, "4,": 154, "40": 155, "43": 156, "44": 157, "45": 158, "48": 159, "4th": 160, "5": 161, "5,": 162, "50": 163, "50-": 164, "50-day": 165, "500": 166, "6": 167, "6,": 168, "60": 169, "600": 170, "7": 171, "7,": 172, "70": 173, "75": 174, "7:": 175, "7:30": 176, "7th.": 177, "8": 178, "8,": 179, "80": 180, "800": 181, "9": 182, "90": 183, ":": 184, "?": 185, "A": 186, "AI": 187, "Ab": 188, "About": 189, "Abu": 190, "Abuj": 191, "Abuja": 192, "Ac": 193, "Acad": 194, "Academ": 195, "Academy": 196, "According": 197, "Act": 198, "Action": 199, "Ad": 200, "Adam": 201, "Adams": 202, "Add": 203, "Addition": 204, "Additionally,": 205, "Advis": 206, "Advisors": 207, "Af": 208, "Afr": 209, "Africa": 210, "Africa.": 211, "African": 212, "After": 213, "Agency": 214, "Air": 215, "Al": 216, "Alab": 217, "Alabama": 218, "Alan": 219, "Ale": 220, "Alex": 221, "Alison": 222, "All": 223, "Alp": 224, "Alpha": 225, "Alphabet": 226, "Also": 227, "Also,": 228, "Although": 229, "Am": 230, "Ama": 231, "Amaz": 232, "Amazon": 233, "Amb": 234, "Ambass": 235, "Ambassad": 236, "Ambassador": 237, "Amer": 238, "America": 239, "American": 240, "Among": 241, "An": 242, "And": 243, "And,": 244, "Andrew": 245, "Andy": 246, "Ange": 247, "Angeles": 248, "Another": 249, "Anth": 250, "Anthony": 251, "Anton": 252, "Antonio": 253, "Any": 254, "Anyone": 255, "App": 256, "Apple": 257, "Apr": 258, "April": 259, "Ar": 260, "Arab": 261, "Are": 262, "Area": 263, "Ariz": 264, "Arizon": 265, "Arizona": 266, "Army": 267, "Around": 268, "Art": 269, "As": 270, "Asia": 271, "Asian": 272, "Asse": 273, "Assem": 274, "Assembly": 275, "Asset": 276, "Associ": 277, "Associated": 278, "Association": 279, "At": 280, "Atl": 281, "Atlanta": 282, "Au": 283, "Aug": 284, "Aug.": 285, "August": 286, "August,": 287, "Aust": 288, "Austin": 289, "Austral": 290, "Australia": 291, "Australian": 292, "Author": 293, "Authorities": 294, "Authority": 295, "Award": 296, "Awards": 297, "B": 298, "BBC": 299, "BC": 300, "BJP": 301, "Back": 302, "Bank": 303, "Bar": 304, "Barry": 305, "Based": 306, "Bay": 307, "Be": 308, "Because": 309, "Before": 310, "Ben": 311, "Best": 312, "Bid": 313, "Biden": 314, "Biden,": 315, "Biden\u2019s": 316, "Big": 317, "Bill": 318, "Bish": 319, "Bishop": 320, "Bit": 321, "Bitco": 322, "Bitcoin": 323, "Bl": 324, "Black": 325, "Blue": 326, "Bo": 327, "Board": 328, "Bob": 329, "Bor": 330, "Border": 331, "Borough": 332, "Bost": 333, "Boston": 334, "Both": 335, "Bow": 336, "Bowl": 337, "Br": 338, "Bra": 339, "Brand": 340, "Brandon": 341, "Braz": 342, "Brazil": 343, "Brazilian": 344, "Brit": 345, "Britain": 346, "British": 347, "Brits": 348, "Broad": 349, "Broadway": 350, "Brown": 351, "Bu": 352, "Buil": 353, "Building": 354, "Bure": 355, "Bureau": 356, "Bus": 357, "Business": 358, "But": 359, "But,": 360, "By": 361, "C": 362, "CC": 363, "CCTV": 364, "CE": 365, "CEO": 366, "CO": 367, "COV": 368, "COVID": 369, "COVID-": 370, "COVID-19": 371, "Cal": 372, "Cali": 373, "Califor": 374, "Californ": 375, "California": 376, "California,": 377, "Cam": 378, "Camer": 379, "Cameron": 380, "Can": 381, "Canad": 382, "Canada": 383, "Canadian": 384, "Cap": 385, "Capi": 386, "Capital": 387, "Capito": 388, "Capitol": 389, "Car": 390, "Care": 391, "Carol": 392, "Carolin": 393, "Carolina": 394, "Cast": 395, "Castle": 396, "Cath": 397, "Cathol": 398, "Catholic": 399, "Cent": 400, "Center": 401, "Center.": 402, "Centers": 403, "Central": 404, "Centre": 405, "Ch": 406, "Cha": 407, "Champ": 408, "Champion": 409, "Champions": 410, "Championship": 411, "Chance": 412, "Chancell": 413, "Chancellor": 414, "Char": 415, "Charles": 416, "Charli": 417, "Charlie": 418, "Chase": 419, "Chel": 420, "Chelsea": 421, "Chica": 422, "Chicago": 423, "Chief": 424, "Chin": 425, "China": 426, "China\u2019s": 427, "Chinese": 428, "Chlo": 429, "Chloe": 430, "Chris": 431, "Christ": 432, "Christian": 433, "Christmas": 434, "Christmas,": 435, "Church": 436, "Cinc": 437, "Cincin": 438, "Cincinn": 439, "Cincinnati": 440, "Cit": 441, "Citig": 442, "Citigroup": 443, "City": 444, "Civil": 445, "Clar": 446, "Clark": 447, "Class": 448, "Clu": 449, "Club": 450, "Co": 451, "Co.": 452, "Coast": 453, "Col": 454, "College": 455, "Color": 456, "Colorad": 457, "Colorado": 458, "Columb": 459, "Columbia": 460, "Com": 461, "Comm": 462, "Commission": 463, "Commission,": 464, "Commit": 465, "Committee": 466, "Community": 467, "Comp": 468, "Compan": 469, "Companies": 470, "Company": 471, "Con": 472, "Conference": 473, "Cong": 474, "Congress": 475, "Cont": 476, "Control": 477, "Cooper": 478, "Cor": 479, "Core": 480, "Corp": 481, "Corpor": 482, "Corporation": 483, "Coun": 484, "Council": 485, "County": 486, "County,": 487, "Cour": 488, "Court": 489, "Court,": 490, "Cr": 491, "Cric": 492, "Cricket": 493, "Crim": 494, "Crime": 495, "Criminal": 496, "Crown": 497, "Cup": 498, "Cur": 499, "Current": 500, "Currently": 501, "D": 502, "DJ": 503, "Daily": 504, "Dan": 505, "Dav": 506, "Dave": 507, "David": 508, "Davis": 509, "Day": 510, "Day.": 511, "De": 512, "Dec.": 513, "Dece": 514, "December": 515, "December,": 516, "December.": 517, "Def": 518, "Defense": 519, "Democrat": 520, "Democratic": 521, "Democrats": 522, "Dep": 523, "Department": 524, "Department.": 525, "Deputy": 526, "Des": 527, "Despite": 528, "Dev": 529, "Develop": 530, "Development": 531, "Devils": 532, "Di": 533, "Director": 534, "Dis": 535, "Disney": 536, "District": 537, "Do": 538, "Don": 539, "Donal": 540, "Donald": 541, "Don\u2019t": 542, "Dr": 543, "Dr.": 544, "Drive": 545, "Drivers": 546, "During": 547, "E": 548, "EP": 549, "EPS": 550, "ET": 551, "ETF": 552, "EU": 553, "Each": 554, "Eag": 555, "Eagles": 556, "Ear": 557, "Earlier": 558, "Earth.": 559, "Eas": 560, "East": 561, "Easter": 562, "Eastern": 563, "Econom": 564, "Economic": 565, "Ed": 566, "Edin": 567, "Edinburgh": 568, "Edu": 569, "Educ": 570, "Education": 571, "Edwards": 572, "El": 573, "Ele": 574, "Election": 575, "Elementary": 576, "Eli": 577, "Eliz": 578, "Eliza": 579, "Elizabe": 580, "Elizabeth": 581, "Elon": 582, "Emer": 583, "Emergency": 584, "En": 585, "Ener": 586, "Energy": 587, "Eng": 588, "England": 589, "English": 590, "Environment": 591, "Environmental": 592, "Eur": 593, "Euro": 594, "Europe": 595, "Europe.": 596, "European": 597, "Even": 598, "Every": 599, "Everyone": 600, "Ex": 601, "Exchange": 602, "Executive": 603, "F": 604, "FC": 605, "Face": 606, "Facebook": 607, "Fam": 608, "Family": 609, "Far": 610, "Fargo": 611, "Father": 612, "Fe": 613, "Febr": 614, "February": 615, "February,": 616, "February.": 617, "Federal": 618, "Festival": 619, "Fil": 620, "Film": 621, "Fin": 622, "Finally,": 623, "Financial": 624, "Fir": 625, "Fire": 626, "First": 627, "Five": 628, "Flor": 629, "Florid": 630, "Florida": 631, "Fo": 632, "Follow": 633, "Following": 634, "Food": 635, "Foot": 636, "Football": 637, "For": 638, "Force": 639, "Ford": 640, "Fore": 641, "Foreign": 642, "Forest": 643, "Former": 644, "Fort": 645, "Forum": 646, "Found": 647, "Foundation": 648, "Foundation,": 649, "Four": 650, "Fox": 651, "Fr": 652, "Fran": 653, "Franc": 654, "France": 655, "Francis": 656, "Francisco": 657, "Frank": 658, "Fren": 659, "French": 660, "Friday": 661, "Friday,": 662, "Friday.": 663, "From": 664, "Fund": 665, "Further": 666, "G": 667, "GD": 668, "GDP": 669, "GO": 670, "GOP": 671, "Game": 672, "Gary": 673, "Gaz": 674, "Gaza": 675, "Gaza,": 676, "Gaza.": 677, "Ge": 678, "Gen": 679, "Gener": 680, "General": 681, "Geor": 682, "Georg": 683, "George": 684, "Georgia": 685, "Ger": 686, "German": 687, "Get": 688, "Gi": 689, "Giants": 690, "Gl": 691, "Glas": 692, "Glasg": 693, "Glasgow": 694, "Global": 695, "Go": 696, "God": 697, "Gold": 698, "Golden": 699, "Good": 700, "Goog": 701, "Google": 702, "Gov.": 703, "Gover": 704, "Government": 705, "Governor": 706, "Gr": 707, "Grace": 708, "Grand": 709, "Gre": 710, "Great": 711, "Green": 712, "Group": 713, "H": 714, "Hall": 715, "Hall.": 716, "Ham": 717, "Hamas": 718, "Har": 719, "Harris": 720, "Harry": 721, "Having": 722, "He": 723, "Head": 724, "Health": 725, "Hen": 726, "Henry": 727, "Her": 728, "Here": 729, "Here\u2019s": 730, "Hez": 731, "Hezb": 732, "Hezbol": 733, "Hezbolla": 734, "Hezbollah": 735, "He\u2019s": 736, "High": 737, "Highland": 738, "Hill": 739, "Hills": 740, "His": 741, "Ho": 742, "Hol": 743, "Holly": 744, "Hollywood": 745, "Holy": 746, "Home": 747, "Homes": 748, "Hospital": 749, "Hou": 750, "House": 751, "Houst": 752, "Houston": 753, "How": 754, "Howard": 755, "However,": 756, "Hull": 757, "I": 758, "I'": 759, "I'll": 760, "I'm": 761, "I've": 762, "ID": 763, "IDF": 764, "II": 765, "Ian": 766, "If": 767, "Ill": 768, "Illin": 769, "Illino": 770, "Illinois": 771, "Im": 772, "Immigration": 773, "In": 774, "Inc.": 775, "Ind": 776, "Indep": 777, "Independent": 778, "India": 779, "India,": 780, "Indian": 781, "India\u2019s": 782, "Indig": 783, "Indigen": 784, "Indigenous": 785, "Infrastructure": 786, "Inst": 787, "Instag": 788, "Instagr": 789, "Instagram": 790, "Institut": 791, "Institute": 792, "International": 793, "Inv": 794, "Inves": 795, "Invest": 796, "Investment": 797, "Investments": 798, "Investors": 799, "Iran": 800, "Iran,": 801, "Iranian": 802, "Iran\u2019s": 803, "Ire": 804, "Ireland": 805, "Iron": 806, "Is": 807, "Island": 808, "Isra": 809, "Israel": 810, "Israel.": 811, "Israeli": 812, "Israel\u2019s": 813, "It": 814, "It's": 815, "Ital": 816, "Italian": 817, "Italy": 818, "Its": 819, "It\u2019s": 820, "I\u2019": 821, "I\u2019d": 822, "I\u2019ll": 823, "I\u2019m": 824, "I\u2019ve": 825, "J": 826, "JP": 827, "JPMorgan": 828, "Jack": 829, "Jackson": 830, "Jake": 831, "Jam": 832, "James": 833, "Jamie": 834, "Jan": 835, "Jan.": 836, "Jane": 837, "January": 838, "January.": 839, "Jap": 840, "Japan": 841, "Japanese": 842, "Jason": 843, "Jef": 844, "Jeff": 845, "Jen": 846, "Jenn": 847, "Jennif": 848, "Jennifer": 849, "Jer": 850, "Jerse": 851, "Jersey": 852, "Jess": 853, "Jessica": 854, "Jew": 855, "Jewish": 856, "Jim": 857, "Jo": 858, "Joe": 859, "Joh": 860, "John": 861, "Johnny": 862, "Johnson": 863, "Jon": 864, "Jonathan": 865, "Jones": 866, "Jr": 867, "Jr.": 868, "Ju": 869, "Jud": 870, "Judge": 871, "July": 872, "June": 873, "Just": 874, "Justice": 875, "K": 876, "Kane": 877, "Kans": 878, "Kansas": 879, "Ke": 880, "Keir": 881, "Ken": 882, "Kenned": 883, "Kennedy": 884, "Kev": 885, "Kevin": 886, "Kim": 887, "King": 888, "Kyle": 889, "L": 890, "LL": 891, "LLC": 892, "La": 893, "Lab": 894, "Labour": 895, "Lad": 896, "Lady": 897, "Lake": 898, "Land": 899, "Lane": 900, "Las": 901, "Last": 902, "Late": 903, "Laur": 904, "Laura": 905, "Law": 906, "Le": 907, "League": 908, "Leban": 909, "Lebanese": 910, "Lee": 911, "Leed": 912, "Leeds": 913, "Let": 914, "Lew": 915, "Lewis": 916, "Liam": 917, "Life": 918, "Like": 919, "Liver": 920, "Liverpool": 921, "Lo": 922, "Local": 923, "Lok": 924, "Lon": 925, "London": 926, "London,": 927, "Lope": 928, "Lopez": 929, "Los": 930, "Lou": 931, "Louis": 932, "Louisian": 933, "Louisiana": 934, "Love": 935, "Lu": 936, "Luis": 937, "Luke": 938, "M": 939, "ML": 940, "MLB": 941, "MP": 942, "Ma": 943, "Mag": 944, "Magp": 945, "Magpies": 946, "Mah": 947, "Mahar": 948, "Maharash": 949, "Maharashtra": 950, "Main": 951, "Maine": 952, "Man": 953, "Management": 954, "Manager": 955, "Manche": 956, "Manchester": 957, "Many": 958, "Mar": 959, "March": 960, "March,": 961, "March.": 962, "Marg": 963, "Margare": 964, "Margaret": 965, "Maria": 966, "Mark": 967, "Market": 968, "MarketBe": 969, "MarketBeat": 970, "MarketBeat,": 971, "Markets": 972, "Marsh": 973, "Marshall": 974, "Mart": 975, "Martin": 976, "Mary": 977, "Mat": 978, "Matt": 979, "Matthe": 980, "Matthew": 981, "Max": 982, "May": 983, "May,": 984, "Maybe": 985, "Mayor": 986, "Me": 987, "Mean": 988, "Meanwhile": 989, "Meanwhile,": 990, "Med": 991, "Media": 992, "Medical": 993, "Megh": 994, "Meghan": 995, "Mem": 996, "Memor": 997, "Memorial": 998, "Met": 999, "Mex": 1000, "Mexic": 1001, "Mexico": 1002, "Mexico,": 1003, "Mic": 1004, "Micha": 1005, "Michael": 1006, "Middle": 1007, "Mike": 1008, "Mill": 1009, "Miller": 1010, "Min": 1011, "Minis": 1012, "Minister": 1013, "Ministry": 1014, "Minnes": 1015, "Minnesot": 1016, "Minnesota": 1017, "Mo": 1018, "Mod": 1019, "Modi": 1020, "Mon": 1021, "Monday": 1022, "Monday,": 1023, "Monday.": 1024, "Moore": 1025, "More": 1026, "Morgan": 1027, "Morning": 1028, "Most": 1029, "Mother": 1030, "Mount": 1031, "Mountain": 1032, "Mr": 1033, "Mr.": 1034, "Mrs": 1035, "Mrs.": 1036, "Ms": 1037, "Ms.": 1038, "Much": 1039, "Mur": 1040, "Murphy": 1041, "Mus": 1042, "Museum": 1043, "Music": 1044, "Musk": 1045, "My": 1046, "N": 1047, "NA": 1048, "NAT": 1049, "NATO": 1050, "NF": 1051, "NFL": 1052, "NH": 1053, "NHS": 1054, "Nathan": 1055, "National": 1056, "Nations": 1057, "Native": 1058, "Net": 1059, "Netf": 1060, "Netfli": 1061, "Netflix": 1062, "Nev": 1063, "Nevad": 1064, "Nevada": 1065, "New": 1066, "Newcast": 1067, "Newcastle": 1068, "News": 1069, "Next": 1070, "Nick": 1071, "Nig": 1072, "Niger": 1073, "Nigeria": 1074, "Nigerian": 1075, "Nigeria\u2019s": 1076, "Night": 1077, "No": 1078, "No.": 1079, "Nor": 1080, "North": 1081, "Northern": 1082, "Not": 1083, "Nov.": 1084, "Nove": 1085, "November": 1086, "November.": 1087, "Now": 1088, "Now,": 1089, "O": 1090, "Oc": 1091, "Oct": 1092, "Oct.": 1093, "Octo": 1094, "October": 1095, "Of": 1096, "Off": 1097, "Offic": 1098, "Office": 1099, "Officer": 1100, "Old": 1101, "Oly": 1102, "Olymp": 1103, "Olympic": 1104, "Omar": 1105, "On": 1106, "Once": 1107, "One": 1108, "Only": 1109, "Open": 1110, "Or": 1111, "Os": 1112, "Oscar": 1113, "Other": 1114, "Others": 1115, "Our": 1116, "Over": 1117, "Overall,": 1118, "Ox": 1119, "Oxford": 1120, "P": 1121, "P/": 1122, "P/E": 1123, "PM": 1124, "Pac": 1125, "Pacific": 1126, "Pak": 1127, "Pakist": 1128, "Pakistan": 1129, "Pal": 1130, "Palest": 1131, "Palestin": 1132, "Palestine": 1133, "Palestinian": 1134, "Palestinians": 1135, "Par": 1136, "Paris": 1137, "Park": 1138, "Park,": 1139, "Parker": 1140, "Parli": 1141, "Parliam": 1142, "Parliament": 1143, "Part": 1144, "Party": 1145, "Pat": 1146, "Pe": 1147, "People": 1148, "People\u2019s": 1149, "Per": 1150, "Perhaps": 1151, "Peter": 1152, "Ph": 1153, "Phil": 1154, "Philip": 1155, "Philipp": 1156, "Philippine": 1157, "Philippines": 1158, "Pit": 1159, "Pitts": 1160, "Pittsburgh": 1161, "Pl": 1162, "Place": 1163, "Plan": 1164, "Play": 1165, "Players": 1166, "Ple": 1167, "Please": 1168, "Plus,": 1169, "Po": 1170, "Point": 1171, "Pol": 1172, "Police": 1173, "Port": 1174, "Portug": 1175, "Portugues": 1176, "Portuguese": 1177, "Post": 1178, "Pr": 1179, "Prades": 1180, "Pradesh": 1181, "Pre": 1182, "Premi": 1183, "Premier": 1184, "President": 1185, "Press": 1186, "Prime": 1187, "Prince": 1188, "Private": 1189, "Pro": 1190, "Prof": 1191, "Profess": 1192, "Professor": 1193, "Program": 1194, "Project": 1195, "Proper": 1196, "Property": 1197, "Public": 1198, "Put": 1199, "Putin": 1200, "Q": 1201, "Que": 1202, "Queen": 1203, "R": 1204, "Re": 1205, "Real": 1206, "Red": 1207, "Reev": 1208, "Reeves": 1209, "Reg": 1210, "Region": 1211, "Regional": 1212, "Rep": 1213, "Rep.": 1214, "Republic": 1215, "Republican": 1216, "Republicans": 1217, "Res": 1218, "Resear": 1219, "Research": 1220, "Reser": 1221, "Reserve": 1222, "Rey": 1223, "Reyno": 1224, "Reynold": 1225, "Reynolds": 1226, "Rich": 1227, "Richard": 1228, "River": 1229, "Ro": 1230, "Road": 1231, "Road,": 1232, "Rober": 1233, "Robert": 1234, "Roberts": 1235, "Rock": 1236, "Rom": 1237, "Roman": 1238, "Ross": 1239, "Roy": 1240, "Royal": 1241, "Rus": 1242, "Russ": 1243, "Russia": 1244, "Russian": 1245, "Russia\u2019s": 1246, "Ry": 1247, "Ryan": 1248, "S": 1249, "S.": 1250, "Sab": 1251, "Sabha": 1252, "Sal": 1253, "Salt": 1254, "Sam": 1255, "Samsu": 1256, "Samsung": 1257, "San": 1258, "Santa": 1259, "Sar": 1260, "Sarah": 1261, "Satur": 1262, "Saturday": 1263, "Saturday,": 1264, "Saturday.": 1265, "Saturday\u2019s": 1266, "Sc": 1267, "School": 1268, "Scot": 1269, "Scotland": 1270, "Scotland,": 1271, "Scott": 1272, "Scottish": 1273, "Se": 1274, "Sea": 1275, "Season": 1276, "Seattle": 1277, "Secretary": 1278, "Section": 1279, "Secur": 1280, "Securities": 1281, "Security": 1282, "Sen": 1283, "Sen.": 1284, "Sena": 1285, "Senate": 1286, "Senator": 1287, "Senior": 1288, "Sep": 1289, "Sept": 1290, "Sept.": 1291, "Septe": 1292, "September": 1293, "Ser": 1294, "Series": 1295, "Service": 1296, "Services": 1297, "Sever": 1298, "Several": 1299, "Sha": 1300, "Shah": 1301, "Share": 1302, "Sharehold": 1303, "Shareholders": 1304, "She": 1305, "Show": 1306, "Sim": 1307, "Simon": 1308, "Since": 1309, "Sir": 1310, "Sk": 1311, "Sky": 1312, "Sm": 1313, "Smith": 1314, "So": 1315, "So,": 1316, "Social": 1317, "Some": 1318, "South": 1319, "Southam": 1320, "Southampt": 1321, "Southampton": 1322, "Southern": 1323, "Sox": 1324, "Space": 1325, "Span": 1326, "Spanish": 1327, "Spe": 1328, "Speak": 1329, "Speaker": 1330, "Speaking": 1331, "Special": 1332, "Sports": 1333, "Spring": 1334, "St": 1335, "St.": 1336, "Stad": 1337, "Stadi": 1338, "Stadium": 1339, "Stan": 1340, "Stanley": 1341, "Star": 1342, "Starmer": 1343, "State": 1344, "State,": 1345, "State.": 1346, "States": 1347, "States,": 1348, "Station": 1349, "Ste": 1350, "Steel": 1351, "Steelers": 1352, "Steph": 1353, "Stephen": 1354, "Steve": 1355, "Still": 1356, "Still,": 1357, "Street": 1358, "Street,": 1359, "Street.": 1360, "Su": 1361, "Sum": 1362, "Summer": 1363, "Sun": 1364, "Sunak": 1365, "Sund": 1366, "Sunday": 1367, "Sunday's": 1368, "Sunday,": 1369, "Sunday.": 1370, "Sup": 1371, "Super": 1372, "Superint": 1373, "Superintendent": 1374, "Support": 1375, "Supreme": 1376, "Sy": 1377, "Syd": 1378, "Sydney": 1379, "T": 1380, "TV": 1381, "Taking": 1382, "Tay": 1383, "Taylor": 1384, "Te": 1385, "Team": 1386, "Tech": 1387, "Technolo": 1388, "Technolog": 1389, "Technologies": 1390, "Technology": 1391, "Ted": 1392, "Tes": 1393, "Tesla": 1394, "Tex": 1395, "Texas": 1396, "Th": 1397, "That": 1398, "That's": 1399, "That\u2019s": 1400, "The": 1401, "Their": 1402, "Then": 1403, "Then,": 1404, "There": 1405, "There's": 1406, "Therefore": 1407, "Therefore,": 1408, "There\u2019s": 1409, "These": 1410, "They": 1411, "This": 1412, "Tho": 1413, "Thom": 1414, "Thomas": 1415, "Those": 1416, "Though": 1417, "Three": 1418, "Through": 1419, "Thurs": 1420, "Thursday": 1421, "Thursday,": 1422, "Thursday.": 1423, "Tic": 1424, "Tickets": 1425, "Tim": 1426, "Times": 1427, "To": 1428, "Today,": 1429, "Tom": 1430, "Tony": 1431, "Town": 1432, "Tr": 1433, "Tra": 1434, "Trade": 1435, "Trans": 1436, "Transport": 1437, "Travis": 1438, "Tre": 1439, "Treas": 1440, "Treasury": 1441, "Trump": 1442, "Trump's": 1443, "Trump,": 1444, "Trump.": 1445, "Trump\u2019s": 1446, "Trust": 1447, "Tues": 1448, "Tuesday": 1449, "Tuesday,": 1450, "Tuesday.": 1451, "Tuesday\u2019s": 1452, "Tur": 1453, "Turk": 1454, "Turkish": 1455, "Two": 1456, "U": 1457, "U.": 1458, "U.S.": 1459, "UB": 1460, "UBS": 1461, "UFC": 1462, "UK": 1463, "UK.": 1464, "UN": 1465, "US": 1466, "USA": 1467, "USC": 1468, "Uk": 1469, "Ukrain": 1470, "Ukraine": 1471, "Ukrainian": 1472, "Un": 1473, "Und": 1474, "Under": 1475, "Union": 1476, "Unit": 1477, "United": 1478, "University": 1479, "University,": 1480, "V": 1481, "Val": 1482, "Valley": 1483, "Vance": 1484, "Ve": 1485, "Vegas": 1486, "Vic": 1487, "Vice": 1488, "Victor": 1489, "Victoria": 1490, "Victorian": 1491, "Vir": 1492, "Virgin": 1493, "Virginia": 1494, "W": 1495, "WW": 1496, "WWE": 1497, "Wales": 1498, "Wall": 1499, "War": 1500, "War,": 1501, "Wash": 1502, "Washing": 1503, "Washington": 1504, "Washington.": 1505, "Watch": 1506, "Water": 1507, "Way": 1508, "We": 1509, "Wealth": 1510, "Wed": 1511, "Wednes": 1512, "Wednesday": 1513, "Wednesday,": 1514, "Wednesday.": 1515, "Week": 1516, "Well": 1517, "Well,": 1518, "Wells": 1519, "Wes": 1520, "West": 1521, "Western": 1522, "We\u2019ve": 1523, "Wh": 1524, "What": 1525, "When": 1526, "Whether": 1527, "Which": 1528, "While": 1529, "White": 1530, "Who": 1531, "Why": 1532, "Wil": 1533, "Will": 1534, "William": 1535, "Williams": 1536, "Wilson": 1537, "Wilson,": 1538, "With": 1539, "Wom": 1540, "Women": 1541, "Wor": 1542, "Work": 1543, "World": 1544, "Would": 1545, "Wre": 1546, "Wrex": 1547, "Wrexha": 1548, "Wrexham": 1549, "X": 1550, "X,": 1551, "Y": 1552, "Yan": 1553, "Yanke": 1554, "Yankees": 1555, "Yet": 1556, "Yet,": 1557, "York": 1558, "York,": 1559, "York.": 1560, "You": 1561, "YouT": 1562, "YouTu": 1563, "YouTube": 1564, "Youn": 1565, "Young": 1566, "Your": 1567, "Z": 1568, "[CLS]": 1569, "[MASK]": 1570, "[PAD]": 1571, "[SEP]": 1572, "[UNK]": 1573, "a": 1574, "a.m.": 1575, "ab": 1576, "ability": 1577, "able": 1578, "abo": 1579, "aboard": 1580, "about": 1581, "about,": 1582, "about.": 1583, "above": 1584, "absolut": 1585, "absolute": 1586, "absolutely": 1587, "abuse": 1588, "ac": 1589, "acad": 1590, "academic": 1591, "acc": 1592, "acce": 1593, "accel": 1594, "acceler": 1595, "accelerate": 1596, "accept": 1597, "acceptance": 1598, "access": 1599, "accessible": 1600, "accident": 1601, "accompan": 1602, "accompanied": 1603, "according": 1604, "accoun": 1605, "account": 1606, "accounts": 1607, "accus": 1608, "accused": 1609, "accusing": 1610, "ace": 1611, "ach": 1612, "achie": 1613, "achieve": 1614, "achievement": 1615, "achievements": 1616, "ack": 1617, "acknow": 1618, "acknowled": 1619, "acknowledged": 1620, "acqu": 1621, "acquire": 1622, "acquired": 1623, "acquiring": 1624, "across": 1625, "act": 1626, "acting": 1627, "action": 1628, "action.": 1629, "actions": 1630, "activ": 1631, "active": 1632, "activities": 1633, "activity": 1634, "actor": 1635, "actors": 1636, "actress": 1637, "acts": 1638, "actual": 1639, "actually": 1640, "acy": 1641, "ad": 1642, "add": 1643, "added": 1644, "added,": 1645, "added.": 1646, "added:": 1647, "adding": 1648, "addition": 1649, "additional": 1650, "addres": 1651, "address": 1652, "addressing": 1653, "adds": 1654, "ade": 1655, "aded": 1656, "adequ": 1657, "adequate": 1658, "ades": 1659, "adminis": 1660, "administr": 1661, "administration": 1662, "administration.": 1663, "admitted": 1664, "adult": 1665, "adv": 1666, "advan": 1667, "advance": 1668, "advanced": 1669, "advant": 1670, "advantage": 1671, "adver": 1672, "advert": 1673, "advertising": 1674, "advice": 1675, "af": 1676, "aff": 1677, "affe": 1678, "affect": 1679, "affected": 1680, "affecting": 1681, "affects": 1682, "afford": 1683, "affordable": 1684, "after": 1685, "afterno": 1686, "afternoon": 1687, "afternoon,": 1688, "ag": 1689, "again": 1690, "again,": 1691, "again.": 1692, "against": 1693, "age": 1694, "aged": 1695, "agement": 1696, "agenc": 1697, "agencies": 1698, "agency": 1699, "agents": 1700, "ager": 1701, "ages": 1702, "agic": 1703, "aging": 1704, "ago": 1705, "ago,": 1706, "ago.": 1707, "agree": 1708, "agreed": 1709, "agreement": 1710, "agreements": 1711, "ague": 1712, "ah": 1713, "ahead": 1714, "aid": 1715, "ail": 1716, "aily": 1717, "aim": 1718, "aimed": 1719, "aims": 1720, "ain": 1721, "ained": 1722, "air": 1723, "airport": 1724, "ak": 1725, "ake": 1726, "aking": 1727, "al": 1728, "alb": 1729, "album": 1730, "alco": 1731, "alcohol": 1732, "ale": 1733, "aler": 1734, "alert": 1735, "ales": 1736, "alive": 1737, "alive.": 1738, "all": 1739, "all,": 1740, "all.": 1741, "alleg": 1742, "allegations": 1743, "alleged": 1744, "allegedly": 1745, "alli": 1746, "alliance": 1747, "allies": 1748, "allow": 1749, "allowed": 1750, "allowing": 1751, "allows": 1752, "ally": 1753, "ally,": 1754, "almost": 1755, "alone": 1756, "along": 1757, "alongside": 1758, "already": 1759, "als": 1760, "also": 1761, "alter": 1762, "altern": 1763, "alternative": 1764, "alth": 1765, "although": 1766, "always": 1767, "am": 1768, "ama": 1769, "amaz": 1770, "amazing": 1771, "ame": 1772, "ames": 1773, "amid": 1774, "aming": 1775, "among": 1776, "amount": 1777, "an": 1778, "anal": 1779, "analys": 1780, "analysis": 1781, "analyst": 1782, "analysts": 1783, "ance": 1784, "ances": 1785, "ancial": 1786, "ancing": 1787, "and": 1788, "and,": 1789, "ands": 1790, "ane": 1791, "anim": 1792, "animal": 1793, "animals": 1794, "animals,": 1795, "ank": 1796, "ann": 1797, "annivers": 1798, "anniversary": 1799, "announ": 1800, "announce": 1801, "announced": 1802, "announcement": 1803, "annual": 1804, "annualized": 1805, "another": 1806, "another.": 1807, "ans": 1808, "answ": 1809, "answer": 1810, "ant": 1811, "anta": 1812, "antic": 1813, "anticip": 1814, "anticipate": 1815, "anticipated": 1816, "ants": 1817, "any": 1818, "anyone": 1819, "anything": 1820, "anything,": 1821, "ap": 1822, "apart": 1823, "apartment": 1824, "app": 1825, "appe": 1826, "appeal": 1827, "appealed": 1828, "appealing": 1829, "appear": 1830, "appearance": 1831, "appearances": 1832, "appeared": 1833, "appearing": 1834, "appears": 1835, "appl": 1836, "appli": 1837, "application": 1838, "applied": 1839, "applies": 1840, "apply": 1841, "appoint": 1842, "appointed": 1843, "appointment": 1844, "apprec": 1845, "appreciate": 1846, "appro": 1847, "approach": 1848, "approached": 1849, "appropr": 1850, "appropriate": 1851, "approv": 1852, "approval": 1853, "approved": 1854, "approx": 1855, "approxim": 1856, "approximately": 1857, "ar": 1858, "arch": 1859, "ard": 1860, "ards": 1861, "are": 1862, "are,": 1863, "are.": 1864, "area": 1865, "area,": 1866, "area.": 1867, "areas": 1868, "areas,": 1869, "ared": 1870, "aren\u2019t": 1871, "arg": 1872, "argu": 1873, "argued": 1874, "arguing": 1875, "aring": 1876, "ark": 1877, "armed": 1878, "army": 1879, "around": 1880, "arr": 1881, "arrest": 1882, "arrested": 1883, "arriv": 1884, "arrivals": 1885, "arrive": 1886, "arrived": 1887, "arrives": 1888, "art": 1889, "arter": 1890, "artic": 1891, "article": 1892, "artific": 1893, "artificial": 1894, "artist": 1895, "artists": 1896, "ary": 1897, "as": 1898, "ase": 1899, "ased": 1900, "ash": 1901, "aside": 1902, "asing": 1903, "ask": 1904, "asked": 1905, "asking": 1906, "ason": 1907, "aspe": 1908, "aspect": 1909, "aspects": 1910, "ass": 1911, "assa": 1912, "assault": 1913, "assess": 1914, "assessment": 1915, "asset": 1916, "assist": 1917, "assistance": 1918, "assistant": 1919, "assisted": 1920, "associ": 1921, "associated": 1922, "ast": 1923, "aster": 1924, "astic": 1925, "asy": 1926, "asyl": 1927, "asylum": 1928, "at": 1929, "atch": 1930, "ate": 1931, "ated": 1932, "ately": 1933, "ater": 1934, "ates": 1935, "ath": 1936, "athan": 1937, "ather": 1938, "athlet": 1939, "athletes": 1940, "ati": 1941, "ating": 1942, "ation": 1943, "ational": 1944, "ations": 1945, "ative": 1946, "atives": 1947, "atmo": 1948, "atmosp": 1949, "atmosphere": 1950, "att": 1951, "attac": 1952, "attack": 1953, "attack.": 1954, "attacked": 1955, "attacking": 1956, "attacks": 1957, "attemp": 1958, "attempt": 1959, "attempted": 1960, "attempting": 1961, "attempts": 1962, "attend": 1963, "attended": 1964, "attending": 1965, "attention": 1966, "attle": 1967, "attor": 1968, "attorney": 1969, "attr": 1970, "attracting": 1971, "atur": 1972, "au": 1973, "aud": 1974, "audi": 1975, "audience": 1976, "audiences": 1977, "aur": 1978, "author": 1979, "authorities": 1980, "authority": 1981, "av": 1982, "avail": 1983, "available": 1984, "ave": 1985, "aver": 1986, "average": 1987, "average,": 1988, "aving": 1989, "avo": 1990, "avoid": 1991, "award": 1992, "award-": 1993, "award-winning": 1994, "awarded": 1995, "awards": 1996, "aware": 1997, "away": 1998, "away,": 1999, "away.": 2000, "ay": 2001, "az": 2002, "b": 2003, "ba": 2004, "baby": 2005, "back": 2006, "back,": 2007, "back.": 2008, "backed": 2009, "bad": 2010, "bag": 2011, "bal": 2012, "balance": 2013, "ball": 2014, "ballot": 2015, "ban": 2016, "band": 2017, "bank": 2018, "banks": 2019, "banned": 2020, "bar": 2021, "bare": 2022, "barely": 2023, "bas": 2024, "base": 2025, "based": 2026, "basic": 2027, "basically": 2028, "basis": 2029, "basket": 2030, "basketball": 2031, "bat": 2032, "batter": 2033, "battery": 2034, "battle": 2035, "be": 2036, "be.": 2037, "bea": 2038, "beat": 2039, "beaten": 2040, "beating": 2041, "beaut": 2042, "beautif": 2043, "beautiful": 2044, "beauty": 2045, "became": 2046, "because": 2047, "become": 2048, "becomes": 2049, "becoming": 2050, "bed": 2051, "been": 2052, "beer": 2053, "before": 2054, "before,": 2055, "before.": 2056, "began": 2057, "begin": 2058, "beginning": 2059, "beh": 2060, "beha": 2061, "behalf": 2062, "behavi": 2063, "behaviour": 2064, "behaviour.": 2065, "behind": 2066, "being": 2067, "beli": 2068, "belie": 2069, "believ": 2070, "believe": 2071, "believed": 2072, "believes": 2073, "belong": 2074, "belongs": 2075, "beloved": 2076, "below": 2077, "ben": 2078, "bench": 2079, "benef": 2080, "benefit": 2081, "benefits": 2082, "ber": 2083, "bers": 2084, "best": 2085, "best.": 2086, "bet": 2087, "beta": 2088, "better": 2089, "better.": 2090, "betting": 2091, "betwe": 2092, "between": 2093, "bey": 2094, "beyond": 2095, "bid": 2096, "big": 2097, "bigger": 2098, "biggest": 2099, "bike": 2100, "bility": 2101, "bill": 2102, "bill,": 2103, "billion": 2104, "billion,": 2105, "billion.": 2106, "bing": 2107, "bir": 2108, "birth": 2109, "birthday": 2110, "bit": 2111, "bitter": 2112, "bl": 2113, "black": 2114, "blam": 2115, "blamed": 2116, "ble": 2117, "blo": 2118, "block": 2119, "blocks": 2120, "blood": 2121, "blow": 2122, "blue": 2123, "bly": 2124, "bo": 2125, "board": 2126, "board.": 2127, "bod": 2128, "bodies": 2129, "body": 2130, "body.": 2131, "bond": 2132, "bonds": 2133, "book": 2134, "books": 2135, "boost": 2136, "boosted": 2137, "bor": 2138, "border": 2139, "born": 2140, "boss": 2141, "bot": 2142, "both": 2143, "botto": 2144, "bottom": 2145, "bought": 2146, "box": 2147, "boy": 2148, "boys": 2149, "br": 2150, "brand": 2151, "brands": 2152, "bre": 2153, "breach": 2154, "breached": 2155, "break": 2156, "break.": 2157, "breakfast": 2158, "breaking": 2159, "brid": 2160, "bridge": 2161, "brief": 2162, "briefly": 2163, "bright": 2164, "brill": 2165, "brilliant": 2166, "bring": 2167, "bringing": 2168, "brings": 2169, "bro": 2170, "broad": 2171, "broadcas": 2172, "broadcast": 2173, "broadcaster": 2174, "broader": 2175, "broke": 2176, "broken": 2177, "brother": 2178, "brothers": 2179, "brou": 2180, "brought": 2181, "brush": 2182, "brut": 2183, "brutal": 2184, "bu": 2185, "bud": 2186, "budget": 2187, "buil": 2188, "build": 2189, "building": 2190, "building,": 2191, "building.": 2192, "buildings": 2193, "built": 2194, "bur": 2195, "burgh": 2196, "buried": 2197, "bus": 2198, "business": 2199, "business,": 2200, "business.": 2201, "businesses": 2202, "businesses,": 2203, "businesses.": 2204, "business\u2019s": 2205, "busy": 2206, "but": 2207, "buy": 2208, "buyers": 2209, "buying": 2210, "by": 2211, "c": 2212, "c.": 2213, "ca": 2214, "cal": 2215, "call": 2216, "called": 2217, "calling": 2218, "calls": 2219, "cam": 2220, "came": 2221, "camera": 2222, "camera,": 2223, "camp": 2224, "campa": 2225, "campaign": 2226, "campaign.": 2227, "campaigning": 2228, "campaigns": 2229, "camps": 2230, "campus": 2231, "can": 2232, "can't": 2233, "cancell": 2234, "cancelled": 2235, "cancer": 2236, "cand": 2237, "candid": 2238, "candidate": 2239, "candidates": 2240, "cannot": 2241, "can\u2019t": 2242, "cap": 2243, "capab": 2244, "capabilities": 2245, "capable": 2246, "capac": 2247, "capacity": 2248, "capital": 2249, "capitalization": 2250, "captain": 2251, "capture": 2252, "car": 2253, "car,": 2254, "car.": 2255, "carb": 2256, "carbon": 2257, "card": 2258, "cards": 2259, "care": 2260, "care.": 2261, "career": 2262, "career,": 2263, "career.": 2264, "carried": 2265, "carry": 2266, "carrying": 2267, "cars": 2268, "cas": 2269, "case": 2270, "case,": 2271, "cases": 2272, "cases,": 2273, "cash": 2274, "cast": 2275, "cat": 2276, "cate": 2277, "categ": 2278, "categor": 2279, "category": 2280, "caught": 2281, "cause": 2282, "caused": 2283, "causes": 2284, "causing": 2285, "ce": 2286, "ced": 2287, "cele": 2288, "celeb": 2289, "celebr": 2290, "celebrate": 2291, "celebrated": 2292, "celebrating": 2293, "celebration": 2294, "celebrities": 2295, "cell": 2296, "cent": 2297, "cent,": 2298, "center": 2299, "central": 2300, "centre": 2301, "centre,": 2302, "centre.": 2303, "century": 2304, "cept": 2305, "cer": 2306, "cere": 2307, "ceremon": 2308, "ceremony": 2309, "certain": 2310, "certainly": 2311, "ces": 2312, "cess": 2313, "ch": 2314, "cha": 2315, "chain": 2316, "chair": 2317, "chall": 2318, "challen": 2319, "challeng": 2320, "challenge": 2321, "challenged": 2322, "challenges": 2323, "challenging": 2324, "champion": 2325, "championship": 2326, "chan": 2327, "chance": 2328, "chances": 2329, "change": 2330, "change.": 2331, "changed": 2332, "changes": 2333, "changing": 2334, "channe": 2335, "channels": 2336, "char": 2337, "charac": 2338, "character": 2339, "characters": 2340, "charge": 2341, "charged": 2342, "charges": 2343, "charity": 2344, "chart": 2345, "charter": 2346, "che": 2347, "chea": 2348, "cheaper": 2349, "check": 2350, "checked": 2351, "ched": 2352, "chef": 2353, "chest": 2354, "chic": 2355, "chicken": 2356, "chief": 2357, "child": 2358, "children": 2359, "children,": 2360, "children.": 2361, "chip": 2362, "chips": 2363, "cho": 2364, "choice": 2365, "choo": 2366, "chool": 2367, "choose": 2368, "choosing": 2369, "chosen": 2370, "chron": 2371, "chronic": 2372, "church": 2373, "cial": 2374, "cil": 2375, "cing": 2376, "cit": 2377, "cities": 2378, "citing": 2379, "citiz": 2380, "citizen": 2381, "citizens": 2382, "citizens.": 2383, "city": 2384, "city,": 2385, "city.": 2386, "civil": 2387, "civilians": 2388, "ck": 2389, "cl": 2390, "claim": 2391, "claimed": 2392, "claiming": 2393, "claims": 2394, "clash": 2395, "class": 2396, "classic": 2397, "cle": 2398, "clean": 2399, "cleaned": 2400, "cleaning": 2401, "clear": 2402, "clear,": 2403, "clearly": 2404, "cli": 2405, "client": 2406, "clients": 2407, "clim": 2408, "climate": 2409, "clin": 2410, "clinical": 2411, "clo": 2412, "close": 2413, "closed": 2414, "closely": 2415, "closer": 2416, "closing": 2417, "closure": 2418, "closures": 2419, "clothing": 2420, "cloud": 2421, "clu": 2422, "club": 2423, "club.": 2424, "clubs": 2425, "clus": 2426, "clusive": 2427, "co": 2428, "coac": 2429, "coach": 2430, "coache": 2431, "coaches": 2432, "coaching": 2433, "coal": 2434, "coalition": 2435, "coast": 2436, "coastal": 2437, "cof": 2438, "coffe": 2439, "coffee": 2440, "col": 2441, "cold": 2442, "coll": 2443, "collab": 2444, "collaboration": 2445, "colle": 2446, "collection": 2447, "college": 2448, "collision": 2449, "colon": 2450, "colonial": 2451, "color": 2452, "com": 2453, "comb": 2454, "combat": 2455, "combination": 2456, "combined": 2457, "come": 2458, "come.": 2459, "comed": 2460, "comedian": 2461, "comedy": 2462, "comes": 2463, "coming": 2464, "comm": 2465, "command": 2466, "comment": 2467, "comment.": 2468, "commented": 2469, "comments": 2470, "commer": 2471, "commercial": 2472, "commis": 2473, "commiss": 2474, "commission": 2475, "commit": 2476, "commitment": 2477, "committed": 2478, "committee": 2479, "committing": 2480, "common": 2481, "commun": 2482, "communication": 2483, "communities": 2484, "communities,": 2485, "communities.": 2486, "community": 2487, "community,": 2488, "community.": 2489, "comp": 2490, "compan": 2491, "companies": 2492, "company": 2493, "company,": 2494, "company.": 2495, "company\u2019s": 2496, "compared": 2497, "compe": 2498, "compens": 2499, "compensation": 2500, "compet": 2501, "compete": 2502, "competing": 2503, "competition": 2504, "competitive": 2505, "compl": 2506, "complain": 2507, "complaint": 2508, "complaints": 2509, "comple": 2510, "complet": 2511, "complete": 2512, "completed": 2513, "completely": 2514, "completing": 2515, "completion": 2516, "complex": 2517, "comply": 2518, "compre": 2519, "compreh": 2520, "comprehensive": 2521, "compu": 2522, "computer": 2523, "con": 2524, "concept": 2525, "concer": 2526, "concern": 2527, "concerned": 2528, "concerning": 2529, "concerns": 2530, "conclu": 2531, "concluded": 2532, "cond": 2533, "condition": 2534, "condition.": 2535, "conditions": 2536, "condu": 2537, "conduct": 2538, "conducted": 2539, "conducting": 2540, "conf": 2541, "conference": 2542, "confidence": 2543, "confir": 2544, "confirm": 2545, "confirmed": 2546, "conne": 2547, "connect": 2548, "connected": 2549, "connection": 2550, "conom": 2551, "conse": 2552, "consecutive": 2553, "consen": 2554, "consensu": 2555, "consensus": 2556, "consequ": 2557, "consequences": 2558, "conserv": 2559, "conservative": 2560, "conside": 2561, "consider": 2562, "considered": 2563, "considering": 2564, "const": 2565, "constit": 2566, "constitu": 2567, "constituency": 2568, "constru": 2569, "construction": 2570, "consu": 2571, "consult": 2572, "consultant": 2573, "consultation": 2574, "consum": 2575, "consumer": 2576, "consumers": 2577, "consump": 2578, "consumption": 2579, "cont": 2580, "contact": 2581, "contacted": 2582, "contain": 2583, "contained": 2584, "containing": 2585, "contemporary": 2586, "content": 2587, "contin": 2588, "continent": 2589, "continu": 2590, "continue": 2591, "continued": 2592, "continued:": 2593, "continues": 2594, "continuing": 2595, "contr": 2596, "contract": 2597, "contracts": 2598, "contribut": 2599, "contribute": 2600, "contributed": 2601, "contributing": 2602, "contributions": 2603, "contro": 2604, "control": 2605, "controls": 2606, "controvers": 2607, "controversial": 2608, "conv": 2609, "convers": 2610, "conversation": 2611, "convic": 2612, "convicted": 2613, "convince": 2614, "cool": 2615, "cor": 2616, "cording": 2617, "core": 2618, "corpor": 2619, "corporate": 2620, "corre": 2621, "correct": 2622, "corruption": 2623, "cost": 2624, "costs": 2625, "cou": 2626, "could": 2627, "couldn't": 2628, "couldn\u2019t": 2629, "coun": 2630, "counc": 2631, "council": 2632, "councill": 2633, "councillors": 2634, "count": 2635, "counties": 2636, "countr": 2637, "countries": 2638, "country": 2639, "country's": 2640, "country,": 2641, "country.": 2642, "country\u2019s": 2643, "county": 2644, "couple": 2645, "cour": 2646, "course": 2647, "course,": 2648, "court": 2649, "cover": 2650, "coverage": 2651, "covered": 2652, "covering": 2653, "covers": 2654, "cr": 2655, "crash": 2656, "crash,": 2657, "crashed": 2658, "cre": 2659, "cream": 2660, "create": 2661, "created": 2662, "creates": 2663, "creating": 2664, "creative": 2665, "cred": 2666, "credit": 2667, "credited": 2668, "cret": 2669, "cretary": 2670, "crew": 2671, "crews": 2672, "crim": 2673, "crime": 2674, "crimes": 2675, "criminal": 2676, "cris": 2677, "crisis": 2678, "crisis.": 2679, "critical": 2680, "cross": 2681, "crow": 2682, "crowd": 2683, "cru": 2684, "crucial": 2685, "ct": 2686, "cted": 2687, "ction": 2688, "cts": 2689, "cul": 2690, "cult": 2691, "cultur": 2692, "cultural": 2693, "culture": 2694, "culture,": 2695, "cur": 2696, "curity": 2697, "current": 2698, "currently": 2699, "cus": 2700, "custo": 2701, "custod": 2702, "custody": 2703, "customer": 2704, "customers": 2705, "cut": 2706, "cutive": 2707, "cuts": 2708, "cutting": 2709, "d": 2710, "dad": 2711, "daily": 2712, "dam": 2713, "damage": 2714, "damaged": 2715, "damages": 2716, "dan": 2717, "dance": 2718, "dang": 2719, "danger": 2720, "dangerous": 2721, "dangers": 2722, "dark": 2723, "dat": 2724, "data": 2725, "date": 2726, "date.": 2727, "dated": 2728, "dates": 2729, "dating": 2730, "dau": 2731, "daughter": 2732, "day": 2733, "day,": 2734, "day.": 2735, "days": 2736, "days,": 2737, "days.": 2738, "de": 2739, "dead": 2740, "deadline": 2741, "deal": 2742, "dealing": 2743, "deals": 2744, "death": 2745, "death,": 2746, "death.": 2747, "deaths": 2748, "deb": 2749, "debate": 2750, "debt": 2751, "debt-to-": 2752, "debt-to-equity": 2753, "debut": 2754, "dec": 2755, "decade": 2756, "decades": 2757, "decid": 2758, "decide": 2759, "decided": 2760, "decis": 2761, "decision": 2762, "decisions": 2763, "decisions.": 2764, "decl": 2765, "declar": 2766, "declaration": 2767, "declared": 2768, "declined": 2769, "decre": 2770, "decrease": 2771, "decreased": 2772, "ded": 2773, "dedic": 2774, "dedicate": 2775, "dedicated": 2776, "dedication": 2777, "deep": 2778, "def": 2779, "defe": 2780, "defeat": 2781, "defeated": 2782, "defence": 2783, "defend": 2784, "defendant": 2785, "defended": 2786, "defense": 2787, "defensive": 2788, "defin": 2789, "definite": 2790, "definitely": 2791, "degre": 2792, "degrees": 2793, "del": 2794, "delay": 2795, "delays": 2796, "deleg": 2797, "delegates": 2798, "deli": 2799, "delight": 2800, "delighted": 2801, "delive": 2802, "deliver": 2803, "delivered": 2804, "delivering": 2805, "delivers": 2806, "delivery": 2807, "dem": 2808, "demand": 2809, "demanded": 2810, "demands": 2811, "dement": 2812, "dementia": 2813, "demo": 2814, "democr": 2815, "democracy": 2816, "democrat": 2817, "democratic": 2818, "demon": 2819, "demonst": 2820, "demonstrated": 2821, "den": 2822, "denied": 2823, "dep": 2824, "department": 2825, "depends": 2826, "depth": 2827, "deput": 2828, "deputy": 2829, "der": 2830, "des": 2831, "descr": 2832, "descri": 2833, "describe": 2834, "described": 2835, "describing": 2836, "deser": 2837, "deserves": 2838, "design": 2839, "designed": 2840, "designs": 2841, "desper": 2842, "desperate": 2843, "despite": 2844, "dest": 2845, "destination": 2846, "destro": 2847, "destroy": 2848, "destroyed": 2849, "detail": 2850, "detailed": 2851, "details": 2852, "detain": 2853, "detained": 2854, "deter": 2855, "determin": 2856, "determination": 2857, "determined": 2858, "dev": 2859, "devast": 2860, "devastating": 2861, "develop": 2862, "developed": 2863, "developing": 2864, "development": 2865, "development,": 2866, "development.": 2867, "devices": 2868, "di": 2869, "diag": 2870, "diagno": 2871, "diagnosed": 2872, "did": 2873, "didn't": 2874, "didn\u2019t": 2875, "die": 2876, "died": 2877, "dif": 2878, "diffe": 2879, "difference": 2880, "different": 2881, "diffic": 2882, "difficult": 2883, "dig": 2884, "digital": 2885, "din": 2886, "ding": 2887, "dinner": 2888, "dire": 2889, "direc": 2890, "direct": 2891, "directed": 2892, "direction": 2893, "directly": 2894, "director": 2895, "directors": 2896, "dis": 2897, "disappointed": 2898, "disaster": 2899, "disclosed": 2900, "discount": 2901, "discover": 2902, "discovered": 2903, "discus": 2904, "discuss": 2905, "discussed": 2906, "discussion": 2907, "disease": 2908, "displaced": 2909, "display": 2910, "disput": 2911, "dispute": 2912, "disruption": 2913, "dist": 2914, "distance": 2915, "distr": 2916, "distribut": 2917, "distributed": 2918, "distribution": 2919, "district": 2920, "distur": 2921, "disturbing": 2922, "div": 2923, "diver": 2924, "diverse": 2925, "divid": 2926, "dividend": 2927, "dividend.": 2928, "division": 2929, "do": 2930, "do.": 2931, "doc": 2932, "doctor": 2933, "docu": 2934, "documentary": 2935, "documents": 2936, "does": 2937, "doesn't": 2938, "doesn\u2019t": 2939, "dog": 2940, "dogs": 2941, "doing": 2942, "dol": 2943, "dollar": 2944, "dom": 2945, "domest": 2946, "domestic": 2947, "domin": 2948, "dominated": 2949, "don": 2950, "don't": 2951, "donation": 2952, "donations": 2953, "done": 2954, "done.": 2955, "done.\u201d": 2956, "don\u2019t": 2957, "door": 2958, "doors": 2959, "dou": 2960, "doub": 2961, "double": 2962, "doubt": 2963, "down": 2964, "down,": 2965, "down.": 2966, "downgr": 2967, "downgraded": 2968, "downtown": 2969, "doz": 2970, "dozen": 2971, "dozens": 2972, "dr": 2973, "dra": 2974, "draf": 2975, "draft": 2976, "drama": 2977, "draw": 2978, "dre": 2979, "dream": 2980, "dressed": 2981, "drin": 2982, "drink": 2983, "drinking": 2984, "driv": 2985, "drive": 2986, "driven": 2987, "driver": 2988, "drivers": 2989, "drives": 2990, "driving": 2991, "dro": 2992, "drone": 2993, "drop": 2994, "dropped": 2995, "drove": 2996, "drug": 2997, "drugs": 2998, "du": 2999, "dub": 3000, "dubbed": 3001, "due": 3002, "duo": 3003, "during": 3004, "dut": 3005, "duties": 3006, "duty": 3007, "e": 3008, "each": 3009, "ead": 3010, "eager": 3011, "ear": 3012, "earlier": 3013, "early": 3014, "earn": 3015, "earned": 3016, "earnings": 3017, "eas": 3018, "ease": 3019, "easi": 3020, "easier": 3021, "easily": 3022, "east": 3023, "eastern": 3024, "easy": 3025, "eat": 3026, "eating": 3027, "ech": 3028, "econom": 3029, "economic": 3030, "economy": 3031, "economy,": 3032, "economy.": 3033, "ect": 3034, "ecutive": 3035, "ed": 3036, "ederal": 3037, "edge": 3038, "edition": 3039, "editor": 3040, "edu": 3041, "educ": 3042, "education": 3043, "education.": 3044, "educational": 3045, "ef": 3046, "effect": 3047, "effective": 3048, "effectively": 3049, "effects": 3050, "effic": 3051, "efficient": 3052, "effor": 3053, "effort": 3054, "efforts": 3055, "eigh": 3056, "eight": 3057, "eighth": 3058, "either": 3059, "either.": 3060, "ek": 3061, "el": 3062, "ele": 3063, "elec": 3064, "elected": 3065, "election": 3066, "election,": 3067, "election.": 3068, "elections": 3069, "electr": 3070, "electric": 3071, "electrical": 3072, "electricity": 3073, "element": 3074, "elev": 3075, "elevated": 3076, "eli": 3077, "elig": 3078, "eligible": 3079, "else": 3080, "em": 3081, "ema": 3082, "email": 3083, "emer": 3084, "emerged": 3085, "emergency": 3086, "emerging": 3087, "emic": 3088, "emot": 3089, "emotional": 3090, "emp": 3091, "emphas": 3092, "emphasized": 3093, "employ": 3094, "employe": 3095, "employee": 3096, "employees": 3097, "employment": 3098, "empty": 3099, "en": 3100, "enable": 3101, "enc": 3102, "ence": 3103, "ences": 3104, "encour": 3105, "encourage": 3106, "encouraged": 3107, "encouraging": 3108, "ency": 3109, "end": 3110, "end,": 3111, "ended": 3112, "endent": 3113, "ending": 3114, "ends": 3115, "ener": 3116, "energy": 3117, "energy,": 3118, "enforce": 3119, "enforcement": 3120, "eng": 3121, "engage": 3122, "engaged": 3123, "engagement": 3124, "engaging": 3125, "enh": 3126, "enhance": 3127, "enhancing": 3128, "enjoy": 3129, "enjoyed": 3130, "enjoying": 3131, "enough": 3132, "enough.": 3133, "ens": 3134, "ense": 3135, "ensive": 3136, "ensure": 3137, "ensures": 3138, "ensuring": 3139, "ent": 3140, "enter": 3141, "entered": 3142, "entering": 3143, "entertain": 3144, "entertainment": 3145, "ential": 3146, "ention": 3147, "entire": 3148, "entirely": 3149, "entit": 3150, "entitled": 3151, "entr": 3152, "entrance": 3153, "entries": 3154, "entry": 3155, "ents": 3156, "environment": 3157, "environment,": 3158, "environment.": 3159, "environmental": 3160, "ep": 3161, "epis": 3162, "episo": 3163, "episod": 3164, "episode": 3165, "episodes": 3166, "equ": 3167, "equal": 3168, "equip": 3169, "equipment": 3170, "equities": 3171, "equity": 3172, "er": 3173, "era": 3174, "eral": 3175, "ered": 3176, "ers": 3177, "es": 3178, "ese": 3179, "especial": 3180, "especially": 3181, "ess": 3182, "essential": 3183, "est": 3184, "estab": 3185, "establ": 3186, "establish": 3187, "established": 3188, "estate": 3189, "estim": 3190, "estimate": 3191, "estimated": 3192, "estimates": 3193, "estiv": 3194, "estival": 3195, "et": 3196, "ev": 3197, "even": 3198, "evening": 3199, "event": 3200, "event,": 3201, "event.": 3202, "events": 3203, "events.": 3204, "eventually": 3205, "ever": 3206, "ever,": 3207, "ever.": 3208, "every": 3209, "everybody": 3210, "everyone": 3211, "everything": 3212, "evidence": 3213, "ew": 3214, "ex": 3215, "exact": 3216, "exactly": 3217, "exam": 3218, "examination": 3219, "examine": 3220, "example": 3221, "example,": 3222, "exc": 3223, "excell": 3224, "excellent": 3225, "except": 3226, "exceptional": 3227, "exchange": 3228, "excite": 3229, "excited": 3230, "excitement": 3231, "exciting": 3232, "exclusive": 3233, "executive": 3234, "exer": 3235, "exerc": 3236, "exercise": 3237, "exis": 3238, "existing": 3239, "exit": 3240, "exp": 3241, "expand": 3242, "expanded": 3243, "expanding": 3244, "expans": 3245, "expansion": 3246, "expe": 3247, "expect": 3248, "expectations": 3249, "expected": 3250, "expects": 3251, "expensive": 3252, "exper": 3253, "experi": 3254, "experienc": 3255, "experience": 3256, "experience,": 3257, "experience.": 3258, "experienced": 3259, "experiences": 3260, "experiencing": 3261, "expert": 3262, "expertise": 3263, "experts": 3264, "expl": 3265, "explain": 3266, "explained": 3267, "explained.": 3268, "explo": 3269, "exploration": 3270, "explore": 3271, "expo": 3272, "exposed": 3273, "exposure": 3274, "expres": 3275, "express": 3276, "expressed": 3277, "ext": 3278, "exten": 3279, "extended": 3280, "extends": 3281, "extens": 3282, "extensive": 3283, "extra": 3284, "extreme": 3285, "extremely": 3286, "ey": 3287, "eye": 3288, "eyes": 3289, "f": 3290, "fa": 3291, "fac": 3292, "face": 3293, "faced": 3294, "faces": 3295, "facilities": 3296, "facility": 3297, "facing": 3298, "fact": 3299, "fact,": 3300, "factor": 3301, "factors": 3302, "fail": 3303, "failed": 3304, "failing": 3305, "fair": 3306, "fair,": 3307, "fairly": 3308, "faith": 3309, "fal": 3310, "fall": 3311, "falling": 3312, "false": 3313, "fam": 3314, "famil": 3315, "famili": 3316, "familiar": 3317, "families": 3318, "family": 3319, "family,": 3320, "family.": 3321, "famous": 3322, "fan": 3323, "fans": 3324, "fans.": 3325, "fant": 3326, "fantastic": 3327, "far": 3328, "far,": 3329, "far-": 3330, "far-right": 3331, "far.": 3332, "farm": 3333, "farmers": 3334, "fash": 3335, "fashion": 3336, "fast": 3337, "faster": 3338, "fat": 3339, "fatal": 3340, "fate": 3341, "father": 3342, "fav": 3343, "favor": 3344, "favorite": 3345, "favour": 3346, "favourite": 3347, "fe": 3348, "fear": 3349, "feat": 3350, "feature": 3351, "featured": 3352, "features": 3353, "featuring": 3354, "fect": 3355, "federal": 3356, "feed": 3357, "feel": 3358, "feeling": 3359, "feels": 3360, "fees": 3361, "feet": 3362, "feet,": 3363, "fell": 3364, "fellow": 3365, "felt": 3366, "female": 3367, "fer": 3368, "fered": 3369, "ference": 3370, "fest": 3371, "festival": 3372, "festive": 3373, "few": 3374, "fi": 3375, "fic": 3376, "field": 3377, "field.": 3378, "fif": 3379, "fifth": 3380, "fig": 3381, "fight": 3382, "fighting": 3383, "fights": 3384, "figure": 3385, "figures": 3386, "figures,": 3387, "fil": 3388, "filed": 3389, "filing": 3390, "fill": 3391, "filled": 3392, "film": 3393, "film,": 3394, "filmed": 3395, "filming": 3396, "films": 3397, "fin": 3398, "final": 3399, "final.": 3400, "finale": 3401, "finally": 3402, "finance": 3403, "financial": 3404, "financing": 3405, "find": 3406, "finds": 3407, "fine": 3408, "finish": 3409, "finished": 3410, "fir": 3411, "fire": 3412, "fire,": 3413, "fire.": 3414, "fired": 3415, "firef": 3416, "firefigh": 3417, "firefighters": 3418, "firm": 3419, "firmly": 3420, "firms": 3421, "firm\u2019s": 3422, "first": 3423, "fis": 3424, "fiscal": 3425, "fish": 3426, "fishing": 3427, "fit": 3428, "five": 3429, "five-year": 3430, "fix": 3431, "fixed": 3432, "flat": 3433, "fle": 3434, "fled": 3435, "fleet": 3436, "flight": 3437, "flights": 3438, "flo": 3439, "flood": 3440, "flooding": 3441, "floor": 3442, "flow": 3443, "fo": 3444, "focus": 3445, "focused": 3446, "focuses": 3447, "focusing": 3448, "fol": 3449, "folks": 3450, "follow": 3451, "followed": 3452, "followers": 3453, "following": 3454, "follows": 3455, "food": 3456, "food,": 3457, "foot": 3458, "footage": 3459, "football": 3460, "for": 3461, "for,": 3462, "for.": 3463, "force": 3464, "forced": 3465, "forces": 3466, "ford": 3467, "fore": 3468, "forec": 3469, "forecast": 3470, "foreign": 3471, "forest": 3472, "forget": 3473, "forgotten": 3474, "form": 3475, "form.": 3476, "formed": 3477, "former": 3478, "forth": 3479, "forward": 3480, "foster": 3481, "fought": 3482, "found": 3483, "foundation": 3484, "founded": 3485, "founder": 3486, "four": 3487, "fourth": 3488, "fr": 3489, "fran": 3490, "franch": 3491, "franchise": 3492, "fras": 3493, "frastr": 3494, "frastructure": 3495, "free": 3496, "free.": 3497, "freed": 3498, "freedom": 3499, "frequ": 3500, "frequent": 3501, "frequently": 3502, "fres": 3503, "fresh": 3504, "fri": 3505, "friend": 3506, "friend.": 3507, "friendly": 3508, "friends": 3509, "friends,": 3510, "fro": 3511, "from": 3512, "front": 3513, "froz": 3514, "frozen": 3515, "fru": 3516, "fruit": 3517, "frust": 3518, "frustrated": 3519, "fue": 3520, "fuel": 3521, "ful": 3522, "full": 3523, "full-time": 3524, "fully": 3525, "fun": 3526, "fund": 3527, "funding": 3528, "funds": 3529, "funeral": 3530, "further": 3531, "fut": 3532, "future": 3533, "future.": 3534, "g": 3535, "ga": 3536, "gain": 3537, "gained": 3538, "game": 3539, "game,": 3540, "game.": 3541, "games": 3542, "games,": 3543, "games.": 3544, "gaming": 3545, "gan": 3546, "gap": 3547, "gard": 3548, "garden": 3549, "gas": 3550, "gathe": 3551, "gather": 3552, "gathered": 3553, "gathering": 3554, "gave": 3555, "ge": 3556, "ged": 3557, "gen": 3558, "gency": 3559, "gend": 3560, "gender": 3561, "gener": 3562, "general": 3563, "generally": 3564, "generation": 3565, "generative": 3566, "genet": 3567, "genetic": 3568, "geop": 3569, "geopol": 3570, "geopolitical": 3571, "ger": 3572, "ges": 3573, "gest": 3574, "get": 3575, "gets": 3576, "getting": 3577, "gh": 3578, "ght": 3579, "ghter": 3580, "giant": 3581, "gin": 3582, "ging": 3583, "gir": 3584, "girl": 3585, "girls": 3586, "giv": 3587, "give": 3588, "given": 3589, "gives": 3590, "giving": 3591, "glass": 3592, "global": 3593, "go": 3594, "go.": 3595, "goal": 3596, "goal.": 3597, "goalke": 3598, "goalkee": 3599, "goalkeeper": 3600, "goals": 3601, "goals,": 3602, "goes": 3603, "going": 3604, "gol": 3605, "gold": 3606, "golf": 3607, "gon": 3608, "gone": 3609, "gonn": 3610, "gonna": 3611, "good": 3612, "got": 3613, "gotten": 3614, "gover": 3615, "governing": 3616, "government": 3617, "government,": 3618, "government.": 3619, "governments": 3620, "government\u2019s": 3621, "governor": 3622, "gr": 3623, "gram": 3624, "grand": 3625, "grandchildren": 3626, "grandmother": 3627, "grant": 3628, "grate": 3629, "grateful": 3630, "gre": 3631, "great": 3632, "greater": 3633, "greatest": 3634, "green": 3635, "grew": 3636, "ground": 3637, "group": 3638, "group,": 3639, "group.": 3640, "groups": 3641, "groups,": 3642, "grow": 3643, "growing": 3644, "grown": 3645, "growth": 3646, "gu": 3647, "guest": 3648, "guests": 3649, "guide": 3650, "guil": 3651, "guilty": 3652, "gun": 3653, "guy": 3654, "gy": 3655, "gym": 3656, "h": 3657, "ha": 3658, "had": 3659, "hadn\u2019t": 3660, "hair": 3661, "hal": 3662, "half": 3663, "half.": 3664, "hall": 3665, "hand": 3666, "hand.": 3667, "handed": 3668, "handle": 3669, "handling": 3670, "hands": 3671, "happ": 3672, "happen": 3673, "happened": 3674, "happened.": 3675, "happening": 3676, "happens": 3677, "happy": 3678, "haps": 3679, "hard": 3680, "harder": 3681, "has": 3682, "hase": 3683, "hasn\u2019t": 3684, "hat": 3685, "have": 3686, "have.": 3687, "haven": 3688, "haven\u2019t": 3689, "having": 3690, "he": 3691, "he's": 3692, "head": 3693, "headed": 3694, "heading": 3695, "headlines": 3696, "headquarter": 3697, "headquarters": 3698, "health": 3699, "healthcare": 3700, "healthy": 3701, "hear": 3702, "heard": 3703, "hearing": 3704, "heart": 3705, "hearts": 3706, "heat": 3707, "heating": 3708, "heav": 3709, "heavily": 3710, "heavy": 3711, "hel": 3712, "held": 3713, "help": 3714, "help.": 3715, "helped": 3716, "helping": 3717, "helps": 3718, "her": 3719, "her,": 3720, "her.": 3721, "here": 3722, "here.": 3723, "hero": 3724, "herself": 3725, "hether": 3726, "he\u2019s": 3727, "hig": 3728, "high": 3729, "high-": 3730, "high-quality": 3731, "highe": 3732, "higher": 3733, "highest": 3734, "highlight": 3735, "highlighted": 3736, "highlighting": 3737, "highly": 3738, "highway": 3739, "him": 3740, "him,": 3741, "him.": 3742, "himself": 3743, "hint": 3744, "hired": 3745, "his": 3746, "histor": 3747, "historic": 3748, "historical": 3749, "history": 3750, "history,": 3751, "hit": 3752, "hits": 3753, "ho": 3754, "hoc": 3755, "hockey": 3756, "hol": 3757, "hold": 3758, "holding": 3759, "holdings": 3760, "holds": 3761, "holes": 3762, "holiday": 3763, "holidays": 3764, "home": 3765, "home,": 3766, "home.": 3767, "homeless": 3768, "homes": 3769, "hon": 3770, "honor": 3771, "hop": 3772, "hope": 3773, "hopeful": 3774, "hopes": 3775, "hoping": 3776, "hor": 3777, "horr": 3778, "horror": 3779, "hospital": 3780, "hospital.": 3781, "hospitality": 3782, "hospitals": 3783, "host": 3784, "hosted": 3785, "hosting": 3786, "hosts": 3787, "hot": 3788, "hotel": 3789, "hour": 3790, "hours": 3791, "hours,": 3792, "hours.": 3793, "hous": 3794, "house": 3795, "houses": 3796, "housing": 3797, "how": 3798, "however": 3799, "however,": 3800, "hu": 3801, "huge": 3802, "hum": 3803, "human": 3804, "humanit": 3805, "humanitar": 3806, "humanitarian": 3807, "hund": 3808, "hundred": 3809, "hundreds": 3810, "hur": 3811, "hurt": 3812, "hus": 3813, "husband": 3814, "i": 3815, "iSha": 3816, "iShares": 3817, "ia": 3818, "ial": 3819, "iam": 3820, "ian": 3821, "ians": 3822, "iant": 3823, "iate": 3824, "ible": 3825, "ibut": 3826, "ic": 3827, "ica": 3828, "ical": 3829, "ican": 3830, "ication": 3831, "ice": 3832, "ices": 3833, "ich": 3834, "ick": 3835, "icon": 3836, "iconic": 3837, "id": 3838, "iday": 3839, "idd": 3840, "iddle": 3841, "ide": 3842, "idea": 3843, "ideal": 3844, "ideas": 3845, "idence": 3846, "ident": 3847, "identif": 3848, "identified": 3849, "identify": 3850, "identity": 3851, "ider": 3852, "ie": 3853, "ied": 3854, "ief": 3855, "ield": 3856, "ience": 3857, "ient": 3858, "ies": 3859, "iety": 3860, "if": 3861, "ife": 3862, "ific": 3863, "ift": 3864, "ify": 3865, "ig": 3866, "igh": 3867, "ight": 3868, "ign": 3869, "igning": 3870, "igno": 3871, "ignored": 3872, "ike": 3873, "il": 3874, "ild": 3875, "ile": 3876, "ilities": 3877, "ility": 3878, "ill": 3879, "illegal": 3880, "illion": 3881, "ils": 3882, "ily": 3883, "im": 3884, "image": 3885, "images": 3886, "ime": 3887, "immed": 3888, "immedi": 3889, "immediate": 3890, "immediately": 3891, "immen": 3892, "immense": 3893, "immigration": 3894, "imp": 3895, "impact": 3896, "impact,": 3897, "impacted": 3898, "impacts": 3899, "import": 3900, "importance": 3901, "important": 3902, "important.": 3903, "importantly": 3904, "importantly,": 3905, "impress": 3906, "impressive": 3907, "impro": 3908, "improv": 3909, "improve": 3910, "improved": 3911, "improvement": 3912, "improving": 3913, "in": 3914, "in,": 3915, "in.": 3916, "inal": 3917, "inary": 3918, "ination": 3919, "inc": 3920, "ince": 3921, "incident": 3922, "incident,": 3923, "incident.": 3924, "inclu": 3925, "include": 3926, "included": 3927, "includes": 3928, "including": 3929, "inclusive": 3930, "income": 3931, "incoming": 3932, "incre": 3933, "increase": 3934, "increased": 3935, "increasing": 3936, "incred": 3937, "incredi": 3938, "incredible": 3939, "incredibly": 3940, "incumb": 3941, "incumbent": 3942, "ind": 3943, "inde": 3944, "indeed": 3945, "indep": 3946, "independent": 3947, "index": 3948, "indic": 3949, "indicated": 3950, "individ": 3951, "individual": 3952, "individuals": 3953, "indust": 3954, "industr": 3955, "industrial": 3956, "industry": 3957, "industry,": 3958, "industry.": 3959, "ine": 3960, "ined": 3961, "ines": 3962, "iness": 3963, "inf": 3964, "inflation": 3965, "influ": 3966, "influence": 3967, "inform": 3968, "information": 3969, "information.": 3970, "informed": 3971, "infrastructure": 3972, "ing": 3973, "init": 3974, "initi": 3975, "initial": 3976, "initially": 3977, "initiative": 3978, "initiatives": 3979, "inj": 3980, "injur": 3981, "injured": 3982, "injuries": 3983, "injury": 3984, "injury.": 3985, "inning": 3986, "innings": 3987, "inno": 3988, "innov": 3989, "innovation": 3990, "innovation,": 3991, "innovative": 3992, "inqu": 3993, "inquir": 3994, "inquiry": 3995, "ins": 3996, "inside": 3997, "insider": 3998, "insight": 3999, "insisted": 4000, "insp": 4001, "inspired": 4002, "inst": 4003, "install": 4004, "installed": 4005, "instance": 4006, "instance,": 4007, "instead": 4008, "institut": 4009, "institutional": 4010, "institutions": 4011, "insur": 4012, "insurance": 4013, "int": 4014, "inte": 4015, "intel": 4016, "intelli": 4017, "intellig": 4018, "intelligence": 4019, "inten": 4020, "intended": 4021, "intends": 4022, "intense": 4023, "intent": 4024, "intention": 4025, "inter": 4026, "interest": 4027, "interested": 4028, "interesting": 4029, "interior": 4030, "intern": 4031, "internal": 4032, "international": 4033, "internet": 4034, "intersection": 4035, "interview": 4036, "interviews": 4037, "into": 4038, "intro": 4039, "introdu": 4040, "introduce": 4041, "introduced": 4042, "inv": 4043, "inves": 4044, "invest": 4045, "invested": 4046, "investig": 4047, "investigate": 4048, "investigating": 4049, "investigation": 4050, "investigation.": 4051, "investment": 4052, "investments": 4053, "investor": 4054, "investors": 4055, "invited": 4056, "invol": 4057, "involve": 4058, "involved": 4059, "involves": 4060, "involving": 4061, "io": 4062, "ion": 4063, "ional": 4064, "ions": 4065, "ior": 4066, "ious": 4067, "ip": 4068, "ir": 4069, "ire": 4070, "ired": 4071, "iring": 4072, "is": 4073, "is,": 4074, "is.": 4075, "ise": 4076, "ised": 4077, "ises": 4078, "ish": 4079, "ished": 4080, "ising": 4081, "ision": 4082, "island": 4083, "isn't": 4084, "isn\u2019t": 4085, "isol": 4086, "isolated": 4087, "ison": 4088, "issu": 4089, "issue": 4090, "issued": 4091, "issues": 4092, "issues,": 4093, "issues.": 4094, "ist": 4095, "isted": 4096, "ister": 4097, "ists": 4098, "it": 4099, "it's": 4100, "it,": 4101, "it,\u201d": 4102, "it.": 4103, "it.\u201d": 4104, "it?": 4105, "ital": 4106, "ite": 4107, "ited": 4108, "item": 4109, "items": 4110, "ith": 4111, "ither": 4112, "itical": 4113, "ities": 4114, "iting": 4115, "ition": 4116, "itional": 4117, "itive": 4118, "itor": 4119, "its": 4120, "itself": 4121, "itut": 4122, "ity": 4123, "it\u2019s": 4124, "iv": 4125, "ivate": 4126, "ive": 4127, "ived": 4128, "ively": 4129, "iver": 4130, "ivers": 4131, "iversity": 4132, "ives": 4133, "ivid": 4134, "ivil": 4135, "iz": 4136, "ization": 4137, "ize": 4138, "ized": 4139, "j": 4140, "ject": 4141, "jo": 4142, "job": 4143, "job.": 4144, "jobs": 4145, "jobs,": 4146, "jobs.": 4147, "join": 4148, "joined": 4149, "joining": 4150, "joint": 4151, "jour": 4152, "journ": 4153, "journal": 4154, "journalis": 4155, "journalism": 4156, "journey": 4157, "joy": 4158, "jud": 4159, "judg": 4160, "judge": 4161, "judges": 4162, "judgment": 4163, "jump": 4164, "jun": 4165, "junior": 4166, "jury": 4167, "just": 4168, "justice": 4169, "k": 4170, "ke": 4171, "ked": 4172, "keep": 4173, "keeping": 4174, "keeps": 4175, "ken": 4176, "kept": 4177, "kes": 4178, "ket": 4179, "kets": 4180, "key": 4181, "kid": 4182, "kids": 4183, "kil": 4184, "kill": 4185, "killed": 4186, "killing": 4187, "kilome": 4188, "kilomet": 4189, "kilometres": 4190, "kind": 4191, "king": 4192, "km": 4193, "kn": 4194, "kne": 4195, "knee": 4196, "knew": 4197, "knife": 4198, "know": 4199, "know,": 4200, "knowing": 4201, "knowled": 4202, "knowledge": 4203, "known": 4204, "knows": 4205, "ks": 4206, "l": 4207, "la": 4208, "lack": 4209, "laid": 4210, "lan": 4211, "land": 4212, "landing": 4213, "lands": 4214, "landsca": 4215, "landscape": 4216, "lane": 4217, "lanes": 4218, "langu": 4219, "language": 4220, "languages": 4221, "lap": 4222, "laptop": 4223, "lar": 4224, "large": 4225, "largely": 4226, "larger": 4227, "largest": 4228, "lass": 4229, "last": 4230, "lasting": 4231, "lat": 4232, "late": 4233, "later": 4234, "later,": 4235, "later.": 4236, "latest": 4237, "lation": 4238, "laun": 4239, "launch": 4240, "launched": 4241, "law": 4242, "law,": 4243, "lawma": 4244, "lawmak": 4245, "lawmakers": 4246, "laws": 4247, "lawsuit": 4248, "lawy": 4249, "lawyer": 4250, "lay": 4251, "layer": 4252, "ld": 4253, "le": 4254, "lead": 4255, "lead.": 4256, "leader": 4257, "leader,": 4258, "leaders": 4259, "leadership": 4260, "leading": 4261, "leads": 4262, "league": 4263, "lear": 4264, "learn": 4265, "learned": 4266, "learning": 4267, "least": 4268, "leav": 4269, "leave": 4270, "leaves": 4271, "leaving": 4272, "led": 4273, "lef": 4274, "left": 4275, "left,": 4276, "left.": 4277, "leg": 4278, "legacy": 4279, "legal": 4280, "lege": 4281, "legend": 4282, "legendary": 4283, "legis": 4284, "legisl": 4285, "legislat": 4286, "legislation": 4287, "legislative": 4288, "legislature": 4289, "leng": 4290, "length": 4291, "les": 4292, "less": 4293, "lessons": 4294, "let": 4295, "letter": 4296, "letter,": 4297, "let\u2019s": 4298, "leve": 4299, "level": 4300, "level,": 4301, "level.": 4302, "levels": 4303, "ley": 4304, "li": 4305, "lier": 4306, "lies": 4307, "lif": 4308, "life": 4309, "life,": 4310, "life.": 4311, "lifetime": 4312, "lifted": 4313, "light": 4314, "lighter": 4315, "like": 4316, "like,": 4317, "likely": 4318, "likes": 4319, "lim": 4320, "limit": 4321, "limited": 4322, "lin": 4323, "line": 4324, "line.": 4325, "lines": 4326, "ling": 4327, "link": 4328, "lis": 4329, "lish": 4330, "list": 4331, "list,": 4332, "list.": 4333, "listed": 4334, "listen": 4335, "lit": 4336, "litt": 4337, "little": 4338, "live": 4339, "lived": 4340, "lives": 4341, "lives.": 4342, "livesto": 4343, "livestock": 4344, "living": 4345, "ll": 4346, "lo": 4347, "loan": 4348, "lobal": 4349, "loc": 4350, "local": 4351, "located": 4352, "location": 4353, "locations": 4354, "lock": 4355, "locked": 4356, "long": 4357, "longer": 4358, "loo": 4359, "look": 4360, "looked": 4361, "looking": 4362, "looks": 4363, "lor": 4364, "lose": 4365, "losing": 4366, "loss": 4367, "loss,": 4368, "lost": 4369, "lot": 4370, "lots": 4371, "loud": 4372, "love": 4373, "loved": 4374, "lovely": 4375, "low": 4376, "lower": 4377, "lowered": 4378, "lowest": 4379, "loy": 4380, "loyal": 4381, "ls": 4382, "lt": 4383, "lu": 4384, "luck": 4385, "lucky": 4386, "lun": 4387, "lunch": 4388, "lux": 4389, "luxury": 4390, "ly": 4391, "m": 4392, "ma": 4393, "made": 4394, "magic": 4395, "main": 4396, "mainly": 4397, "maintain": 4398, "maintaining": 4399, "mainten": 4400, "maintenance": 4401, "maj": 4402, "major": 4403, "majority": 4404, "make": 4405, "makes": 4406, "making": 4407, "male": 4408, "man": 4409, "man,": 4410, "man.": 4411, "manage": 4412, "managed": 4413, "management": 4414, "manager": 4415, "managing": 4416, "manu": 4417, "manufact": 4418, "manufacturing": 4419, "many": 4420, "mar": 4421, "mark": 4422, "marke": 4423, "market": 4424, "market,": 4425, "market.": 4426, "marketing": 4427, "markets": 4428, "marking": 4429, "married": 4430, "mas": 4431, "mass": 4432, "massive": 4433, "master": 4434, "mat": 4435, "match": 4436, "match.": 4437, "matche": 4438, "matches": 4439, "matchup": 4440, "mater": 4441, "material": 4442, "materials": 4443, "matter": 4444, "matter.": 4445, "matters": 4446, "may": 4447, "maybe": 4448, "mber": 4449, "me": 4450, "me,": 4451, "me.": 4452, "meal": 4453, "mean": 4454, "meaning": 4455, "meaningful": 4456, "means": 4457, "meant": 4458, "meas": 4459, "measure": 4460, "measures": 4461, "med": 4462, "media": 4463, "media.": 4464, "medical": 4465, "mee": 4466, "meet": 4467, "meeting": 4468, "meeting.": 4469, "mem": 4470, "member": 4471, "members": 4472, "members.": 4473, "memor": 4474, "memorable": 4475, "memories": 4476, "memory": 4477, "men": 4478, "ment": 4479, "mental": 4480, "mentary": 4481, "mention": 4482, "ments": 4483, "menu": 4484, "mer": 4485, "mers": 4486, "mes": 4487, "mess": 4488, "messa": 4489, "message": 4490, "messages": 4491, "messaging": 4492, "met": 4493, "meth": 4494, "method": 4495, "metro": 4496, "mi": 4497, "middle": 4498, "mig": 4499, "might": 4500, "migr": 4501, "migration": 4502, "mil": 4503, "miles": 4504, "milit": 4505, "military": 4506, "milk": 4507, "million": 4508, "million,": 4509, "million.": 4510, "millions": 4511, "min": 4512, "mind": 4513, "mind.": 4514, "minim": 4515, "minimum": 4516, "mining": 4517, "minis": 4518, "minister": 4519, "minister,": 4520, "ministers": 4521, "ministry": 4522, "minor": 4523, "minut": 4524, "minute": 4525, "minutes": 4526, "minutes,": 4527, "mis": 4528, "misconduct": 4529, "miss": 4530, "missed": 4531, "missing": 4532, "mission": 4533, "mit": 4534, "mitted": 4535, "mix": 4536, "mixed": 4537, "mo": 4538, "mob": 4539, "mobile": 4540, "mobility": 4541, "moc": 4542, "mocrat": 4543, "model": 4544, "models": 4545, "moder": 4546, "modern": 4547, "mom": 4548, "moment": 4549, "moment.": 4550, "moments": 4551, "momentum": 4552, "mon": 4553, "mone": 4554, "money": 4555, "money,": 4556, "money.": 4557, "monitor": 4558, "month": 4559, "month,": 4560, "month.": 4561, "monthly": 4562, "months": 4563, "months,": 4564, "months.": 4565, "more": 4566, "more.": 4567, "morning": 4568, "morning,": 4569, "morning.": 4570, "mort": 4571, "mortg": 4572, "mortgage": 4573, "most": 4574, "mostly": 4575, "mother": 4576, "mother.": 4577, "motion": 4578, "motor": 4579, "motorists": 4580, "mountain": 4581, "mouth": 4582, "mov": 4583, "move": 4584, "moved": 4585, "movement": 4586, "moves": 4587, "movie": 4588, "movies": 4589, "moving": 4590, "mp": 4591, "mpion": 4592, "ms": 4593, "much": 4594, "much.": 4595, "mult": 4596, "multip": 4597, "multiple": 4598, "mur": 4599, "murder": 4600, "mus": 4601, "museum": 4602, "music": 4603, "musical": 4604, "must": 4605, "mut": 4606, "mutual": 4607, "my": 4608, "myself": 4609, "myster": 4610, "mysterious": 4611, "n": 4612, "n't": 4613, "nam": 4614, "name": 4615, "named": 4616, "names": 4617, "nat": 4618, "nation": 4619, "national": 4620, "nations": 4621, "nation\u2019s": 4622, "native": 4623, "natur": 4624, "natural": 4625, "nature": 4626, "nd": 4627, "ne": 4628, "near": 4629, "nearby": 4630, "nearly": 4631, "necess": 4632, "necessary": 4633, "ned": 4634, "need": 4635, "needed": 4636, "needs": 4637, "needs.": 4638, "neg": 4639, "negative": 4640, "negot": 4641, "negoti": 4642, "negotiations": 4643, "neither": 4644, "ner": 4645, "ners": 4646, "nerv": 4647, "nervous": 4648, "nes": 4649, "net": 4650, "network": 4651, "networks": 4652, "never": 4653, "new": 4654, "newly": 4655, "news": 4656, "news,": 4657, "news.": 4658, "nex": 4659, "next": 4660, "ney": 4661, "ng": 4662, "nice": 4663, "night": 4664, "night,": 4665, "night.": 4666, "nin": 4667, "nine": 4668, "ning": 4669, "nings": 4670, "ninth": 4671, "nment": 4672, "no": 4673, "nobody": 4674, "nolo": 4675, "nology": 4676, "none": 4677, "nor": 4678, "norm": 4679, "normal": 4680, "north": 4681, "northern": 4682, "not": 4683, "not,": 4684, "not.": 4685, "notable": 4686, "note": 4687, "noted": 4688, "notes": 4689, "nothing": 4690, "notic": 4691, "notice": 4692, "noticed": 4693, "noting": 4694, "now": 4695, "now,": 4696, "now.": 4697, "nu": 4698, "nuclear": 4699, "num": 4700, "number": 4701, "numbers": 4702, "numer": 4703, "numerous": 4704, "nurs": 4705, "nurses": 4706, "ny": 4707, "n\u2019t": 4708, "o": 4709, "ob": 4710, "object": 4711, "objective": 4712, "observed": 4713, "obtain": 4714, "obv": 4715, "obvious": 4716, "obviously": 4717, "oc": 4718, "occas": 4719, "occasion": 4720, "occur": 4721, "occurred": 4722, "od": 4723, "of": 4724, "off": 4725, "off,": 4726, "off.": 4727, "offense": 4728, "offensive": 4729, "offer": 4730, "offered": 4731, "offering": 4732, "offers": 4733, "offic": 4734, "office": 4735, "office,": 4736, "office.": 4737, "officer": 4738, "officers": 4739, "official": 4740, "officially": 4741, "officials": 4742, "officials.": 4743, "often": 4744, "og": 4745, "oil": 4746, "ok": 4747, "ol": 4748, "old": 4749, "older": 4750, "ollow": 4751, "om": 4752, "ome": 4753, "omes": 4754, "on": 4755, "on,": 4756, "on.": 4757, "once": 4758, "ond": 4759, "one": 4760, "one,": 4761, "one.": 4762, "ones": 4763, "ones,": 4764, "ong": 4765, "ongoing": 4766, "online": 4767, "only": 4768, "ons": 4769, "ont": 4770, "onto": 4771, "ony": 4772, "op": 4773, "open": 4774, "opened": 4775, "opening": 4776, "oper": 4777, "operate": 4778, "operating": 4779, "operation": 4780, "operational": 4781, "operations": 4782, "opin": 4783, "opinion": 4784, "ople": 4785, "oppon": 4786, "opponents": 4787, "opport": 4788, "opportunities": 4789, "opportunity": 4790, "opposed": 4791, "opposition": 4792, "opt": 4793, "option": 4794, "options": 4795, "or": 4796, "oration": 4797, "ord": 4798, "orde": 4799, "order": 4800, "ordered": 4801, "orders": 4802, "ordinary": 4803, "ore": 4804, "organ": 4805, "organis": 4806, "organisation": 4807, "organization": 4808, "orig": 4809, "origin": 4810, "original": 4811, "originally": 4812, "ork": 4813, "orning": 4814, "ors": 4815, "ort": 4816, "ose": 4817, "ost": 4818, "ot": 4819, "ote": 4820, "other": 4821, "other,": 4822, "others": 4823, "others.": 4824, "otherw": 4825, "otherwise": 4826, "oting": 4827, "otion": 4828, "ou": 4829, "oud": 4830, "ough": 4831, "ought": 4832, "ould": 4833, "oun": 4834, "ound": 4835, "ount": 4836, "ountain": 4837, "our": 4838, "ource": 4839, "ources": 4840, "ous": 4841, "ouse": 4842, "out": 4843, "out,": 4844, "out.": 4845, "outcome": 4846, "outcomes": 4847, "outdoor": 4848, "outh": 4849, "outhern": 4850, "outlook": 4851, "outside": 4852, "over": 4853, "overall": 4854, "overcome": 4855, "overtime": 4856, "overturned": 4857, "overw": 4858, "overwhel": 4859, "overwhelm": 4860, "overwhelming": 4861, "ow": 4862, "owed": 4863, "own": 4864, "owned": 4865, "owner": 4866, "owners": 4867, "ownership": 4868, "owns": 4869, "p": 4870, "p.m.": 4871, "pa": 4872, "pace": 4873, "page": 4874, "paid": 4875, "pain": 4876, "pair": 4877, "pan": 4878, "pand": 4879, "pandemic": 4880, "pandemic,": 4881, "pandemic.": 4882, "panel": 4883, "paper": 4884, "par": 4885, "pare": 4886, "paren": 4887, "parents": 4888, "parents,": 4889, "park": 4890, "parking": 4891, "part": 4892, "part,": 4893, "part-time": 4894, "partial": 4895, "partially": 4896, "partic": 4897, "particip": 4898, "participants": 4899, "participated": 4900, "particular": 4901, "particularly": 4902, "parties": 4903, "partment": 4904, "partner": 4905, "partners": 4906, "partnership": 4907, "parts": 4908, "party": 4909, "party\u2019s": 4910, "pass": 4911, "passed": 4912, "passeng": 4913, "passengers": 4914, "passes": 4915, "passing": 4916, "passion": 4917, "past": 4918, "past,": 4919, "past.": 4920, "path": 4921, "pati": 4922, "patient": 4923, "patients": 4924, "pay": 4925, "paying": 4926, "payment": 4927, "payments": 4928, "pe": 4929, "peace": 4930, "pecial": 4931, "pect": 4932, "ped": 4933, "pen": 4934, "penal": 4935, "penalty": 4936, "people": 4937, "people,": 4938, "people,\u201d": 4939, "people.": 4940, "people\u2019s": 4941, "per": 4942, "percent": 4943, "percent.": 4944, "perfect": 4945, "perform": 4946, "performance": 4947, "performance,": 4948, "performance.": 4949, "performances": 4950, "performed": 4951, "performers": 4952, "performing": 4953, "perhaps": 4954, "peri": 4955, "period": 4956, "period.": 4957, "perman": 4958, "permanent": 4959, "permit": 4960, "pers": 4961, "persist": 4962, "persistent": 4963, "person": 4964, "personal": 4965, "personne": 4966, "personnel": 4967, "persons": 4968, "perspect": 4969, "perspective": 4970, "perspectives": 4971, "ph": 4972, "phase": 4973, "pho": 4974, "phone": 4975, "photo": 4976, "photos": 4977, "phy": 4978, "phys": 4979, "physic": 4980, "physical": 4981, "physically": 4982, "pic": 4983, "pick": 4984, "picked": 4985, "picking": 4986, "picture": 4987, "pie": 4988, "piece": 4989, "pieces": 4990, "ping": 4991, "pit": 4992, "pitch": 4993, "pite": 4994, "pl": 4995, "plac": 4996, "place": 4997, "place,": 4998, "place.": 4999, "placed": 5000, "places": 5001, "plan": 5002, "plan,": 5003, "planned": 5004, "planning": 5005, "plans": 5006, "plans.": 5007, "plant": 5008, "plastic": 5009, "plat": 5010, "platform": 5011, "platform.": 5012, "platforms": 5013, "play": 5014, "play.": 5015, "played": 5016, "player": 5017, "player,": 5018, "players": 5019, "players.": 5020, "playing": 5021, "playoff": 5022, "plays": 5023, "ple": 5024, "plead": 5025, "pleaded": 5026, "please": 5027, "pleased": 5028, "pledge": 5029, "plent": 5030, "plenty": 5031, "plot": 5032, "plus": 5033, "po": 5034, "poin": 5035, "point": 5036, "point.": 5037, "pointed": 5038, "points": 5039, "points,": 5040, "pol": 5041, "polic": 5042, "police": 5043, "policies": 5044, "policy": 5045, "polit": 5046, "politic": 5047, "political": 5048, "politics": 5049, "poll": 5050, "polls": 5051, "pon": 5052, "pool": 5053, "poor": 5054, "pop": 5055, "popul": 5056, "popular": 5057, "population": 5058, "por": 5059, "port": 5060, "porters": 5061, "portion": 5062, "ports": 5063, "pos": 5064, "pose": 5065, "posed": 5066, "position": 5067, "position.": 5068, "positioned": 5069, "positive": 5070, "possession": 5071, "possi": 5072, "possibility": 5073, "possible": 5074, "possible,": 5075, "possible.": 5076, "possibly": 5077, "post": 5078, "post.": 5079, "posted": 5080, "poster": 5081, "posts": 5082, "pot": 5083, "potential": 5084, "potentially": 5085, "pound": 5086, "pounds": 5087, "pover": 5088, "poverty": 5089, "pow": 5090, "power": 5091, "power,": 5092, "power.": 5093, "powerful": 5094, "powers": 5095, "pp": 5096, "pped": 5097, "pr": 5098, "pra": 5099, "pract": 5100, "practical": 5101, "practice": 5102, "practices": 5103, "praised": 5104, "pre": 5105, "prefer": 5106, "preferred": 5107, "prelim": 5108, "preliminary": 5109, "premi": 5110, "premium": 5111, "prep": 5112, "prepare": 5113, "prepared": 5114, "preparing": 5115, "pres": 5116, "presence": 5117, "present": 5118, "presentation": 5119, "presented": 5120, "presenting": 5121, "presents": 5122, "president": 5123, "president,": 5124, "presidential": 5125, "press": 5126, "pressure": 5127, "prest": 5128, "prestig": 5129, "prestigious": 5130, "pret": 5131, "pretty": 5132, "prev": 5133, "prevent": 5134, "previous": 5135, "previously": 5136, "price": 5137, "price-to-": 5138, "price-to-earnings": 5139, "prices": 5140, "prices.": 5141, "pride": 5142, "prim": 5143, "primar": 5144, "primarily": 5145, "primary": 5146, "prime": 5147, "princ": 5148, "princip": 5149, "principal": 5150, "pring": 5151, "prior": 5152, "priority": 5153, "prison": 5154, "private": 5155, "prize": 5156, "pro": 5157, "prob": 5158, "probab": 5159, "probably": 5160, "proble": 5161, "problem": 5162, "problems": 5163, "problems.": 5164, "process": 5165, "process.": 5166, "processing": 5167, "produ": 5168, "produce": 5169, "produced": 5170, "producer": 5171, "product": 5172, "production": 5173, "products": 5174, "prof": 5175, "profess": 5176, "professional": 5177, "professionals": 5178, "profit": 5179, "profits": 5180, "prog": 5181, "program": 5182, "program.": 5183, "programme": 5184, "programs": 5185, "programs,": 5186, "progress": 5187, "proj": 5188, "proje": 5189, "project": 5190, "project.": 5191, "projected": 5192, "projects": 5193, "prom": 5194, "promin": 5195, "prominent": 5196, "promised": 5197, "promises": 5198, "promote": 5199, "promoting": 5200, "promotion": 5201, "promp": 5202, "prompt": 5203, "prompted": 5204, "proper": 5205, "properly": 5206, "properties": 5207, "property": 5208, "propos": 5209, "proposal": 5210, "proposals": 5211, "proposed": 5212, "prose": 5213, "prosecut": 5214, "prosecution": 5215, "prot": 5216, "prote": 5217, "protect": 5218, "protected": 5219, "protecting": 5220, "protective": 5221, "protes": 5222, "protest": 5223, "protesters": 5224, "protests": 5225, "proud": 5226, "proudly": 5227, "prov": 5228, "prove": 5229, "proven": 5230, "provid": 5231, "provide": 5232, "provided": 5233, "provider": 5234, "providers": 5235, "provider\u2019s": 5236, "provides": 5237, "providing": 5238, "provin": 5239, "province": 5240, "provincial": 5241, "ps": 5242, "pt": 5243, "pu": 5244, "pub": 5245, "publ": 5246, "public": 5247, "public.": 5248, "publicly": 5249, "published": 5250, "pul": 5251, "pull": 5252, "pulled": 5253, "pump": 5254, "pup": 5255, "pupils": 5256, "pur": 5257, "purch": 5258, "purchase": 5259, "purchased": 5260, "purchasing": 5261, "pursu": 5262, "pursue": 5263, "push": 5264, "pushed": 5265, "pushing": 5266, "put": 5267, "puts": 5268, "putting": 5269, "q": 5270, "qu": 5271, "qual": 5272, "qualify": 5273, "quality": 5274, "quarter": 5275, "quarter,": 5276, "quarter.": 5277, "quarterback": 5278, "quarterly": 5279, "que": 5280, "queer": 5281, "quest": 5282, "question": 5283, "questioned": 5284, "questions": 5285, "questions.": 5286, "quick": 5287, "quickly": 5288, "quite": 5289, "r": 5290, "ra": 5291, "rac": 5292, "race": 5293, "race,": 5294, "race.": 5295, "races": 5296, "rad": 5297, "radio": 5298, "rail": 5299, "rain": 5300, "rains": 5301, "raise": 5302, "raised": 5303, "raises": 5304, "raising": 5305, "ral": 5306, "rally": 5307, "ran": 5308, "range": 5309, "ranging": 5310, "ranks": 5311, "rap": 5312, "rapid": 5313, "rare": 5314, "rat": 5315, "rate": 5316, "rated": 5317, "rates": 5318, "rather": 5319, "rating": 5320, "ratio": 5321, "re": 5322, "reach": 5323, "reached": 5324, "reaching": 5325, "reaction": 5326, "read": 5327, "read:": 5328, "reading": 5329, "ready": 5330, "real": 5331, "reality": 5332, "really": 5333, "reason": 5334, "reasons": 5335, "reat": 5336, "rec": 5337, "recall": 5338, "rece": 5339, "receiv": 5340, "receive": 5341, "received": 5342, "receiving": 5343, "recent": 5344, "recently": 5345, "recept": 5346, "reception": 5347, "reco": 5348, "recog": 5349, "recogn": 5350, "recognition": 5351, "recognize": 5352, "recognized": 5353, "recomm": 5354, "recommend": 5355, "recommendations": 5356, "recommended": 5357, "recor": 5358, "record": 5359, "recorded": 5360, "recording": 5361, "records": 5362, "recover": 5363, "recovered": 5364, "recovery": 5365, "recru": 5366, "recruit": 5367, "recruiting": 5368, "rector": 5369, "red": 5370, "redu": 5371, "reduce": 5372, "reduced": 5373, "reducing": 5374, "reduction": 5375, "ree": 5376, "reed": 5377, "reet": 5378, "ref": 5379, "refer": 5380, "referred": 5381, "refers": 5382, "refle": 5383, "reflect": 5384, "reflecting": 5385, "refused": 5386, "reg": 5387, "regard": 5388, "regarding": 5389, "regime": 5390, "region": 5391, "region,": 5392, "region.": 5393, "regional": 5394, "regions": 5395, "regis": 5396, "registe": 5397, "register": 5398, "registered": 5399, "regul": 5400, "regula": 5401, "regular": 5402, "regularly": 5403, "regulations": 5404, "regulatory": 5405, "rel": 5406, "related": 5407, "relation": 5408, "relationship": 5409, "relationship.": 5410, "relative": 5411, "relatively": 5412, "rele": 5413, "release": 5414, "released": 5415, "releasing": 5416, "reli": 5417, "reliable": 5418, "relief": 5419, "relig": 5420, "religious": 5421, "rely": 5422, "rem": 5423, "remain": 5424, "remained": 5425, "remaining": 5426, "remains": 5427, "reme": 5428, "remember": 5429, "remind": 5430, "reminder": 5431, "remote": 5432, "remove": 5433, "removed": 5434, "ren": 5435, "rence": 5436, "renew": 5437, "renewed": 5438, "rent": 5439, "rental": 5440, "repe": 5441, "repeated": 5442, "repeatedly": 5443, "replace": 5444, "repor": 5445, "report": 5446, "report,": 5447, "reported": 5448, "reported.": 5449, "reportedly": 5450, "reporter": 5451, "reporters": 5452, "reporting": 5453, "reports": 5454, "reports.": 5455, "represent": 5456, "representation": 5457, "representatives": 5458, "represented": 5459, "representing": 5460, "represents": 5461, "requ": 5462, "request": 5463, "requested": 5464, "requests": 5465, "requi": 5466, "require": 5467, "required": 5468, "requirements": 5469, "requires": 5470, "requiring": 5471, "res": 5472, "resc": 5473, "rescue": 5474, "research": 5475, "researchers": 5476, "resident": 5477, "residential": 5478, "residents": 5479, "resil": 5480, "resilience": 5481, "resol": 5482, "resolut": 5483, "resolution": 5484, "resolve": 5485, "resort": 5486, "resource": 5487, "resources": 5488, "resources,": 5489, "respect": 5490, "respectively": 5491, "respectively.": 5492, "respon": 5493, "respond": 5494, "responded": 5495, "response": 5496, "responsi": 5497, "responsibility": 5498, "responsible": 5499, "ress": 5500, "ressed": 5501, "rest": 5502, "restaur": 5503, "restaurant": 5504, "restaurants": 5505, "resto": 5506, "restore": 5507, "restr": 5508, "restric": 5509, "restrict": 5510, "restrictions": 5511, "resul": 5512, "result": 5513, "result,": 5514, "resulted": 5515, "results": 5516, "results.": 5517, "resume": 5518, "ret": 5519, "retail": 5520, "retire": 5521, "retirement": 5522, "retur": 5523, "return": 5524, "returned": 5525, "returning": 5526, "returns": 5527, "reve": 5528, "reveal": 5529, "revealed": 5530, "revealing": 5531, "reveals": 5532, "revenue": 5533, "review": 5534, "reviewing": 5535, "rew": 5536, "rich": 5537, "ride": 5538, "ried": 5539, "right": 5540, "right.": 5541, "rights": 5542, "ring": 5543, "ris": 5544, "rise": 5545, "risen": 5546, "rising": 5547, "risk": 5548, "risk.": 5549, "risks": 5550, "ro": 5551, "road": 5552, "road.": 5553, "roads": 5554, "rob": 5555, "robust": 5556, "rock": 5557, "rol": 5558, "role": 5559, "roles": 5560, "roll": 5561, "rolling": 5562, "ron": 5563, "rook": 5564, "rookie": 5565, "room": 5566, "room.": 5567, "ross": 5568, "rou": 5569, "rough": 5570, "roughly": 5571, "round": 5572, "rounds": 5573, "roup": 5574, "rout": 5575, "routes": 5576, "row": 5577, "ru": 5578, "rug": 5579, "rugby": 5580, "rul": 5581, "rule": 5582, "ruled": 5583, "rules": 5584, "ruling": 5585, "run": 5586, "run.": 5587, "running": 5588, "runs": 5589, "rup": 5590, "ruption": 5591, "rur": 5592, "rural": 5593, "rush": 5594, "rushed": 5595, "ry": 5596, "s": 5597, "s,": 5598, "s.": 5599, "sa": 5600, "safe": 5601, "safely": 5602, "safety": 5603, "safety,": 5604, "saga": 5605, "said": 5606, "said,": 5607, "said.": 5608, "said:": 5609, "sale": 5610, "sale,": 5611, "sales": 5612, "same": 5613, "san": 5614, "sand": 5615, "sang": 5616, "sat": 5617, "satis": 5618, "satisf": 5619, "satisfaction": 5620, "save": 5621, "saved": 5622, "saving": 5623, "savings": 5624, "saw": 5625, "say": 5626, "say,": 5627, "saying": 5628, "saying:": 5629, "says": 5630, "says,": 5631, "says.": 5632, "says:": 5633, "sc": 5634, "scale": 5635, "scary": 5636, "scen": 5637, "scene": 5638, "scene.": 5639, "sche": 5640, "sched": 5641, "schedu": 5642, "schedul": 5643, "schedule": 5644, "scheduled": 5645, "scheme": 5646, "scheme.": 5647, "school": 5648, "schools": 5649, "science": 5650, "scient": 5651, "scientific": 5652, "sco": 5653, "scor": 5654, "score": 5655, "scored": 5656, "scoring": 5657, "scre": 5658, "screen": 5659, "se": 5660, "sea": 5661, "search": 5662, "seaside": 5663, "season": 5664, "season,": 5665, "season.": 5666, "seasons": 5667, "seat": 5668, "sec": 5669, "second": 5670, "secret": 5671, "secretary": 5672, "section": 5673, "sections": 5674, "sector": 5675, "sector.": 5676, "secure": 5677, "secured": 5678, "securing": 5679, "security": 5680, "security.": 5681, "sed": 5682, "see": 5683, "seeing": 5684, "seek": 5685, "seeking": 5686, "seeks": 5687, "seem": 5688, "seemed": 5689, "seeming": 5690, "seemingly": 5691, "seems": 5692, "seen": 5693, "sees": 5694, "sel": 5695, "sele": 5696, "selected": 5697, "selection": 5698, "self": 5699, "sell": 5700, "selling": 5701, "sells": 5702, "sen": 5703, "send": 5704, "sending": 5705, "senior": 5706, "sense": 5707, "sent": 5708, "sentenc": 5709, "sentenced": 5710, "separ": 5711, "separate": 5712, "ser": 5713, "series": 5714, "series,": 5715, "series.": 5716, "serious": 5717, "seriously": 5718, "serv": 5719, "serve": 5720, "served": 5721, "serves": 5722, "service": 5723, "service.": 5724, "services": 5725, "services,": 5726, "services.": 5727, "serving": 5728, "sess": 5729, "session": 5730, "set": 5731, "sett": 5732, "setting": 5733, "settled": 5734, "seve": 5735, "seven": 5736, "seventh": 5737, "sever": 5738, "several": 5739, "severe": 5740, "severely": 5741, "sex": 5742, "sexual": 5743, "sh": 5744, "sha": 5745, "shad": 5746, "shadow": 5747, "shape": 5748, "share": 5749, "share.": 5750, "shared": 5751, "shares": 5752, "shares.": 5753, "sharing": 5754, "she": 5755, "she's": 5756, "shel": 5757, "shelter": 5758, "she\u2019s": 5759, "shift": 5760, "ship": 5761, "shipping": 5762, "sho": 5763, "shoot": 5764, "shooting": 5765, "shop": 5766, "shopping": 5767, "shore": 5768, "short": 5769, "short-": 5770, "short-term": 5771, "shortly": 5772, "shot": 5773, "shots": 5774, "should": 5775, "shoulder": 5776, "shouldn't": 5777, "shouldn\u2019t": 5778, "show": 5779, "show,": 5780, "show.": 5781, "showc": 5782, "showcased": 5783, "showcasing": 5784, "showed": 5785, "showers": 5786, "showing": 5787, "shown": 5788, "shows": 5789, "shut": 5790, "si": 5791, "sian": 5792, "side": 5793, "side,": 5794, "side.": 5795, "sider": 5796, "sign": 5797, "signal": 5798, "signed": 5799, "signific": 5800, "significant": 5801, "significantly": 5802, "signing": 5803, "signs": 5804, "sil": 5805, "silver": 5806, "sim": 5807, "simil": 5808, "similar": 5809, "similarly": 5810, "simp": 5811, "simple": 5812, "simply": 5813, "since": 5814, "since,": 5815, "since.": 5816, "sing": 5817, "singer": 5818, "single": 5819, "sister": 5820, "sit": 5821, "site": 5822, "sites": 5823, "sitting": 5824, "situ": 5825, "situation": 5826, "situation.": 5827, "six": 5828, "six,": 5829, "sixth": 5830, "siz": 5831, "size": 5832, "sk": 5833, "ski": 5834, "skill": 5835, "skilled": 5836, "skills": 5837, "sle": 5838, "sleep": 5839, "sleeping": 5840, "slight": 5841, "slightly": 5842, "slots": 5843, "slow": 5844, "slowly": 5845, "sm": 5846, "small": 5847, "smaller": 5848, "smart": 5849, "smile": 5850, "smo": 5851, "smoke": 5852, "smoo": 5853, "smooth": 5854, "snow": 5855, "so": 5856, "so,": 5857, "so-": 5858, "so-called": 5859, "so.": 5860, "soc": 5861, "soccer": 5862, "soci": 5863, "social": 5864, "society": 5865, "society,": 5866, "sof": 5867, "soft": 5868, "software": 5869, "soil": 5870, "sol": 5871, "solar": 5872, "sold": 5873, "soldi": 5874, "soldiers": 5875, "solid": 5876, "solo": 5877, "solut": 5878, "solution": 5879, "solutions": 5880, "some": 5881, "some,": 5882, "somebody": 5883, "someone": 5884, "something": 5885, "sometimes": 5886, "somewhere": 5887, "son": 5888, "son,": 5889, "song": 5890, "songs": 5891, "soon": 5892, "soon.": 5893, "sor": 5894, "sorry": 5895, "sort": 5896, "sought": 5897, "sound": 5898, "sounds": 5899, "source": 5900, "sources": 5901, "south": 5902, "southern": 5903, "sp": 5904, "space": 5905, "space,": 5906, "space.": 5907, "spar": 5908, "sparked": 5909, "spe": 5910, "speak": 5911, "speaking": 5912, "speaks": 5913, "spec": 5914, "special": 5915, "specific": 5916, "specifically": 5917, "spect": 5918, "speech": 5919, "speech.": 5920, "speed": 5921, "speeds": 5922, "spend": 5923, "spending": 5924, "spent": 5925, "spir": 5926, "spirit": 5927, "spital": 5928, "spl": 5929, "split": 5930, "spo": 5931, "spoke": 5932, "spoken": 5933, "spokes": 5934, "spokesperson": 5935, "spons": 5936, "sponsor": 5937, "sponsorship": 5938, "sports": 5939, "spot": 5940, "spotted": 5941, "spread": 5942, "spring": 5943, "squ": 5944, "squad": 5945, "square": 5946, "ss": 5947, "st": 5948, "stability": 5949, "staff": 5950, "staff.": 5951, "stage": 5952, "stake": 5953, "stand": 5954, "standard": 5955, "standards": 5956, "standing": 5957, "stands": 5958, "star": 5959, "stars": 5960, "start": 5961, "started": 5962, "started.": 5963, "starting": 5964, "starts": 5965, "stat": 5966, "state": 5967, "state,": 5968, "state.": 5969, "stated": 5970, "stated.": 5971, "statement": 5972, "statement,": 5973, "statement.": 5974, "statements": 5975, "states": 5976, "states.": 5977, "state\u2019s": 5978, "stating": 5979, "station": 5980, "stations": 5981, "status": 5982, "stay": 5983, "stayed": 5984, "staying": 5985, "stead": 5986, "steady": 5987, "step": 5988, "stepped": 5989, "steps": 5990, "ster": 5991, "still": 5992, "stint": 5993, "sto": 5994, "stock": 5995, "stock,": 5996, "stock.": 5997, "stocks": 5998, "stol": 5999, "stolen": 6000, "stood": 6001, "stop": 6002, "stopped": 6003, "stor": 6004, "store": 6005, "stores": 6006, "stories": 6007, "storm": 6008, "story": 6009, "story.": 6010, "str": 6011, "stra": 6012, "straight": 6013, "stran": 6014, "strange": 6015, "strate": 6016, "strateg": 6017, "strategic": 6018, "strategies": 6019, "strategy": 6020, "stre": 6021, "streaming": 6022, "stree": 6023, "street": 6024, "streets": 6025, "stren": 6026, "streng": 6027, "strength": 6028, "stress": 6029, "stressed": 6030, "stret": 6031, "stretch": 6032, "strike": 6033, "strong": 6034, "stru": 6035, "struck": 6036, "structure": 6037, "strug": 6038, "strugg": 6039, "struggle": 6040, "struggled": 6041, "struggling": 6042, "stu": 6043, "stuck": 6044, "stud": 6045, "student": 6046, "students": 6047, "students,": 6048, "studio": 6049, "study": 6050, "stuf": 6051, "stuff": 6052, "stun": 6053, "stunning": 6054, "style": 6055, "su": 6056, "sub": 6057, "subject": 6058, "submit": 6059, "submitted": 6060, "subst": 6061, "substant": 6062, "substantial": 6063, "suc": 6064, "success": 6065, "success,": 6066, "success.": 6067, "successful": 6068, "successfully": 6069, "such": 6070, "sud": 6071, "sudden": 6072, "suddenly": 6073, "suf": 6074, "suffer": 6075, "suffered": 6076, "suffering": 6077, "sug": 6078, "suggest": 6079, "suggested": 6080, "suggests": 6081, "suit": 6082, "sum": 6083, "summer": 6084, "summit": 6085, "sun": 6086, "sunny": 6087, "sup": 6088, "super": 6089, "superstar": 6090, "supp": 6091, "supply": 6092, "support": 6093, "support,": 6094, "support.": 6095, "supported": 6096, "supporters": 6097, "supporting": 6098, "supports": 6099, "supposed": 6100, "sur": 6101, "sure": 6102, "sures": 6103, "surge": 6104, "surpr": 6105, "surprise": 6106, "surprised": 6107, "surprising": 6108, "surround": 6109, "surrounded": 6110, "surrounding": 6111, "surve": 6112, "survey": 6113, "susp": 6114, "suspe": 6115, "suspect": 6116, "suspects": 6117, "suspended": 6118, "suspic": 6119, "suspicion": 6120, "sust": 6121, "sustain": 6122, "sustainability": 6123, "sustainable": 6124, "sustained": 6125, "sw": 6126, "swe": 6127, "sweet": 6128, "swift": 6129, "swiftly": 6130, "sy": 6131, "symp": 6132, "sympto": 6133, "symptoms": 6134, "syst": 6135, "system": 6136, "system,": 6137, "system.": 6138, "systems": 6139, "t": 6140, "ta": 6141, "tab": 6142, "table": 6143, "tables": 6144, "tack": 6145, "tackle": 6146, "tail": 6147, "tain": 6148, "take": 6149, "taken": 6150, "takes": 6151, "taking": 6152, "tal": 6153, "talent": 6154, "talk": 6155, "talked": 6156, "talking": 6157, "talks": 6158, "tar": 6159, "target": 6160, "targeted": 6161, "targeting": 6162, "targets": 6163, "tast": 6164, "taste": 6165, "taught": 6166, "tax": 6167, "taxes": 6168, "te": 6169, "teac": 6170, "teach": 6171, "teacher": 6172, "teachers": 6173, "teaching": 6174, "team": 6175, "team,": 6176, "team.": 6177, "teams": 6178, "team\u2019s": 6179, "tech": 6180, "techn": 6181, "technical": 6182, "technology": 6183, "ted": 6184, "tee": 6185, "tele": 6186, "television": 6187, "tell": 6188, "telling": 6189, "tells": 6190, "tem": 6191, "temp": 6192, "temper": 6193, "temperat": 6194, "temperature": 6195, "temperatures": 6196, "tempor": 6197, "temporary": 6198, "ten": 6199, "tend": 6200, "ter": 6201, "term": 6202, "term,": 6203, "terms": 6204, "tern": 6205, "ternational": 6206, "terr": 6207, "terri": 6208, "territor": 6209, "territories": 6210, "territory": 6211, "territory.": 6212, "terror": 6213, "terrorist": 6214, "terrorists": 6215, "ters": 6216, "test": 6217, "testing": 6218, "tests": 6219, "text": 6220, "th": 6221, "th.": 6222, "than": 6223, "thank": 6224, "thanks": 6225, "that": 6226, "that's": 6227, "that,": 6228, "that,\u201d": 6229, "that.": 6230, "that.\u201d": 6231, "that\u2019s": 6232, "the": 6233, "theat": 6234, "theatre": 6235, "their": 6236, "them": 6237, "them,": 6238, "them.": 6239, "theme": 6240, "themes": 6241, "themsel": 6242, "themselves": 6243, "then": 6244, "then,": 6245, "ther": 6246, "there": 6247, "there's": 6248, "there,": 6249, "there.": 6250, "there\u2019s": 6251, "thern": 6252, "these": 6253, "they": 6254, "they're": 6255, "they\u2019re": 6256, "they\u2019ve": 6257, "thin": 6258, "thing": 6259, "things": 6260, "things.": 6261, "think": 6262, "thinking": 6263, "thinks": 6264, "thir": 6265, "third": 6266, "this": 6267, "this,": 6268, "this.": 6269, "thor": 6270, "thorough": 6271, "thoroughly": 6272, "those": 6273, "though": 6274, "though,": 6275, "thought": 6276, "thoughts": 6277, "thous": 6278, "thousands": 6279, "thr": 6280, "threat": 6281, "threaten": 6282, "threatened": 6283, "threatening": 6284, "threats": 6285, "three": 6286, "threw": 6287, "thrive": 6288, "through": 6289, "throughout": 6290, "throw": 6291, "throwing": 6292, "tic": 6293, "ticket": 6294, "tickets": 6295, "tie": 6296, "tied": 6297, "ties": 6298, "tight": 6299, "tim": 6300, "time": 6301, "time,": 6302, "time.": 6303, "time.\u201d": 6304, "times": 6305, "times,": 6306, "times.": 6307, "ting": 6308, "tion": 6309, "tit": 6310, "title": 6311, "titled": 6312, "to": 6313, "to.": 6314, "today": 6315, "today,": 6316, "today.": 6317, "today\u2019s": 6318, "toge": 6319, "together": 6320, "together,": 6321, "together.": 6322, "told": 6323, "toll": 6324, "ton": 6325, "tonight": 6326, "too": 6327, "too,": 6328, "too.": 6329, "took": 6330, "tool": 6331, "tools": 6332, "top": 6333, "topp": 6334, "topping": 6335, "tor": 6336, "tors": 6337, "tory": 6338, "tot": 6339, "total": 6340, "total.": 6341, "totally": 6342, "tou": 6343, "touch": 6344, "tough": 6345, "tour": 6346, "tourist": 6347, "tourists": 6348, "tournam": 6349, "tournament": 6350, "tow": 6351, "toward": 6352, "towards": 6353, "town": 6354, "tr": 6355, "tra": 6356, "track": 6357, "trad": 6358, "trade": 6359, "traded": 6360, "trading": 6361, "tradition": 6362, "traditional": 6363, "traff": 6364, "traffic": 6365, "tragic": 6366, "trail": 6367, "train": 6368, "trained": 6369, "training": 6370, "trans": 6371, "transaction": 6372, "transaction,": 6373, "transfer": 6374, "transform": 6375, "transformation": 6376, "transformed": 6377, "transit": 6378, "transition": 6379, "transport": 6380, "trave": 6381, "travel": 6382, "travell": 6383, "travelled": 6384, "travelling": 6385, "tre": 6386, "treat": 6387, "treated": 6388, "treatment": 6389, "tree": 6390, "trees": 6391, "trend": 6392, "trial": 6393, "trial.": 6394, "tric": 6395, "trict": 6396, "tried": 6397, "trillion": 6398, "trip": 6399, "tro": 6400, "trop": 6401, "trophy": 6402, "tropical": 6403, "trou": 6404, "trouble": 6405, "tru": 6406, "true": 6407, "truly": 6408, "trust": 6409, "truth": 6410, "try": 6411, "try.": 6412, "trying": 6413, "ts": 6414, "tur": 6415, "ture": 6416, "turn": 6417, "turned": 6418, "turning": 6419, "tw": 6420, "twice": 6421, "twin": 6422, "two": 6423, "two-": 6424, "two-hundred": 6425, "two.": 6426, "ty": 6427, "typ": 6428, "type": 6429, "types": 6430, "typic": 6431, "typically": 6432, "u": 6433, "ual": 6434, "ually": 6435, "uary": 6436, "ubl": 6437, "ublic": 6438, "uch": 6439, "uct": 6440, "ucture": 6441, "ud": 6442, "ue": 6443, "ued": 6444, "ues": 6445, "ug": 6446, "ught": 6447, "ul": 6448, "ular": 6449, "ull": 6450, "ult": 6451, "ultim": 6452, "ultimately": 6453, "um": 6454, "umb": 6455, "ume": 6456, "ump": 6457, "un": 6458, "unable": 6459, "unaccept": 6460, "unacceptable": 6461, "unclear": 6462, "und": 6463, "under": 6464, "undergo": 6465, "undergoing": 6466, "underground": 6467, "unders": 6468, "understand": 6469, "understanding": 6470, "understands": 6471, "understo": 6472, "understood": 6473, "underway": 6474, "une": 6475, "unemp": 6476, "unemploy": 6477, "unemployment": 6478, "unhappy": 6479, "uni": 6480, "union": 6481, "unique": 6482, "unit": 6483, "unities": 6484, "units": 6485, "unity": 6486, "univers": 6487, "universities": 6488, "university": 6489, "unlikely": 6490, "unt": 6491, "until": 6492, "unusual": 6493, "unve": 6494, "unveil": 6495, "unveiled": 6496, "up": 6497, "up,": 6498, "up.": 6499, "upcoming": 6500, "update": 6501, "upgr": 6502, "upgrade": 6503, "upgraded": 6504, "upon": 6505, "upped": 6506, "upset": 6507, "ur": 6508, "urch": 6509, "ure": 6510, "ured": 6511, "ures": 6512, "urg": 6513, "urged": 6514, "urgent": 6515, "urging": 6516, "uring": 6517, "urs": 6518, "urther": 6519, "ury": 6520, "us": 6521, "us,": 6522, "us.": 6523, "us.\u201d": 6524, "use": 6525, "used": 6526, "user": 6527, "users": 6528, "uses": 6529, "useum": 6530, "ush": 6531, "using": 6532, "ust": 6533, "usu": 6534, "usual": 6535, "usually": 6536, "ut": 6537, "uty": 6538, "v": 6539, "v.": 6540, "vac": 6541, "vacu": 6542, "vacuum": 6543, "val": 6544, "valu": 6545, "valuable": 6546, "value": 6547, "valued": 6548, "values": 6549, "van": 6550, "var": 6551, "variety": 6552, "various": 6553, "ve": 6554, "ved": 6555, "veh": 6556, "vehic": 6557, "vehicle": 6558, "vehicles": 6559, "vehicles,": 6560, "velo": 6561, "velop": 6562, "ven": 6563, "vent": 6564, "venture": 6565, "venue": 6566, "ver": 6567, "vered": 6568, "vers": 6569, "version": 6570, "very": 6571, "ves": 6572, "veter": 6573, "veteran": 6574, "veterans": 6575, "vi": 6576, "via": 6577, "vic": 6578, "vice": 6579, "vices": 6580, "victim": 6581, "victims": 6582, "victory": 6583, "vide": 6584, "video": 6585, "video,": 6586, "videos": 6587, "vie": 6588, "view": 6589, "viewed": 6590, "viewers": 6591, "views": 6592, "vill": 6593, "village": 6594, "ving": 6595, "viol": 6596, "violence": 6597, "violent": 6598, "vir": 6599, "viral": 6600, "viron": 6601, "vironment": 6602, "vis": 6603, "visi": 6604, "vision": 6605, "visit": 6606, "visited": 6607, "visiting": 6608, "visitors": 6609, "visits": 6610, "vital": 6611, "vo": 6612, "voice": 6613, "vol": 6614, "volume": 6615, "volun": 6616, "volunte": 6617, "volunteer": 6618, "vot": 6619, "vote": 6620, "voted": 6621, "voters": 6622, "votes": 6623, "voting": 6624, "vowed": 6625, "vs.": 6626, "vul": 6627, "vulner": 6628, "vulnerable": 6629, "w": 6630, "wa": 6631, "wait": 6632, "waiting": 6633, "wake": 6634, "wal": 6635, "walk": 6636, "walked": 6637, "walking": 6638, "want": 6639, "wanted": 6640, "wants": 6641, "war": 6642, "war,": 6643, "ward": 6644, "wards": 6645, "ware": 6646, "warm": 6647, "warned": 6648, "warning": 6649, "was": 6650, "was,": 6651, "wash": 6652, "washing": 6653, "wasn't": 6654, "wasn\u2019t": 6655, "waste": 6656, "watch": 6657, "watched": 6658, "watching": 6659, "water": 6660, "water,": 6661, "water.": 6662, "wave": 6663, "way": 6664, "way,": 6665, "way.": 6666, "ways": 6667, "ways,": 6668, "we": 6669, "we'": 6670, "we're": 6671, "we've": 6672, "wealth": 6673, "weap": 6674, "weapons": 6675, "wearing": 6676, "weather": 6677, "web": 6678, "website": 6679, "website.": 6680, "wed": 6681, "wedding": 6682, "week": 6683, "week,": 6684, "week.": 6685, "weekend": 6686, "weekend,": 6687, "weekend.": 6688, "weekly": 6689, "weeks": 6690, "weeks.": 6691, "weigh": 6692, "weighed": 6693, "weight": 6694, "wel": 6695, "welcome": 6696, "welcomed": 6697, "welcoming": 6698, "welf": 6699, "welfare": 6700, "well": 6701, "well,": 6702, "well-": 6703, "well-being": 6704, "well-known": 6705, "well.": 6706, "went": 6707, "were": 6708, "west": 6709, "we\u2019ll": 6710, "we\u2019re": 6711, "we\u2019ve": 6712, "wh": 6713, "what": 6714, "whate": 6715, "whatever": 6716, "when": 6717, "whenever": 6718, "where": 6719, "whether": 6720, "which": 6721, "whil": 6722, "while": 6723, "whilst": 6724, "white": 6725, "who": 6726, "whole": 6727, "whom": 6728, "whose": 6729, "who\u2019s": 6730, "why": 6731, "wid": 6732, "wide": 6733, "widely": 6734, "wider": 6735, "wides": 6736, "widespre": 6737, "widespread": 6738, "wife": 6739, "wife,": 6740, "wild": 6741, "will": 6742, "willing": 6743, "win": 6744, "win.": 6745, "wind": 6746, "window": 6747, "winds": 6748, "wine": 6749, "winner": 6750, "winners": 6751, "winning": 6752, "wins": 6753, "winter": 6754, "wish": 6755, "wit": 6756, "with": 6757, "with.": 6758, "within": 6759, "without": 6760, "witn": 6761, "witness": 6762, "wo": 6763, "wom": 6764, "woman": 6765, "women": 6766, "women\u2019s": 6767, "won": 6768, "won't": 6769, "wonder": 6770, "won\u2019t": 6771, "wood": 6772, "wooden": 6773, "wor": 6774, "word": 6775, "words": 6776, "work": 6777, "work,": 6778, "work.": 6779, "worked": 6780, "workers": 6781, "workforce": 6782, "working": 6783, "works": 6784, "world": 6785, "world,": 6786, "world.": 6787, "world\u2019s": 6788, "worried": 6789, "worry": 6790, "worrying": 6791, "worst": 6792, "worth": 6793, "would": 6794, "wouldn't": 6795, "wouldn\u2019t": 6796, "wr": 6797, "wrapp": 6798, "wrapped": 6799, "wrest": 6800, "wrestling": 6801, "writ": 6802, "write": 6803, "writer": 6804, "writing": 6805, "written": 6806, "wrong": 6807, "wrong.": 6808, "wrote": 6809, "wrote.": 6810, "x": 6811, "y": 6812, "yards": 6813, "ye": 6814, "year": 6815, "year's": 6816, "year,": 6817, "year.": 6818, "years": 6819, "years,": 6820, "years.": 6821, "year\u2019s": 6822, "yell": 6823, "yellow": 6824, "yet": 6825, "yet,": 6826, "yield": 6827, "yle": 6828, "you": 6829, "you'": 6830, "you'll": 6831, "you're": 6832, "you,": 6833, "you.": 6834, "young": 6835, "younger": 6836, "your": 6837, "yourself": 6838, "you\u2019ll": 6839, "you\u2019re": 6840, "you\u2019ve": 6841, "ys": 6842, "yst": 6843, "z": 6844, "\u2013": 6845, "\u2014": 6846, "\u2018": 6847, "\u2018I": 6848, "\u2018You": 6849, "\u2019": 6850, "\u2019ll": 6851, "\u2019re": 6852, "\u2019s": 6853, "\u2019t": 6854, "\u2019ve": 6855, "\u201c": 6856, "\u201cA": 6857, "\u201cAnd": 6858, "\u201cAs": 6859, "\u201cBut": 6860, "\u201cFor": 6861, "\u201cH": 6862, "\u201cHe": 6863, "\u201cHold": 6864, "\u201cHold\u201d": 6865, "\u201cHowever,": 6866, "\u201cI": 6867, "\u201cIf": 6868, "\u201cIn": 6869, "\u201cIt": 6870, "\u201cIt\u2019s": 6871, "\u201cI\u2019": 6872, "\u201cI\u2019m": 6873, "\u201cI\u2019ve": 6874, "\u201cMy": 6875, "\u201cOne": 6876, "\u201cOur": 6877, "\u201cShe": 6878, "\u201cSo": 6879, "\u201cThat": 6880, "\u201cThat\u2019s": 6881, "\u201cThe": 6882, "\u201cThere": 6883, "\u201cThere\u2019s": 6884, "\u201cThese": 6885, "\u201cThey": 6886, "\u201cThis": 6887, "\u201cWe": 6888, "\u201cWe\u2019re": 6889, "\u201cWhat": 6890, "\u201cWhen": 6891, "\u201cWhile": 6892, "\u201cYou": 6893, "\u201ca": 6894, "\u201cbuy": 6895, "\u201cbuy\u201d": 6896, "\u201chold": 6897, "\u201chold\u201d": 6898, "\u201cin": 6899, "\u201cis": 6900, "\u201cne": 6901, "\u201cneut": 6902, "\u201cneutral": 6903, "\u201cneutral\u201d": 6904, "\u201cout": 6905, "\u201coutperform": 6906, "\u201coutperform\u201d": 6907, "\u201cover": 6908, "\u201coverweight": 6909, "\u201coverweight\u201d": 6910, "\u201cthe": 6911, "\u201d": 6912, "\u2022": 6913, "\u2026": 6914}